<unk>	0
<s>	0
</s>	0
▁	-3.18532
.	-3.5602
이	-4.33205
..	-4.42377
▁영화	-4.59157
...	-4.66975
가	-4.67203
의	-4.69228
도	-4.73746
는	-4.81586
,	-4.94591
을	-4.97527
에	-5.00515
고	-5.06365
다	-5.15394
은	-5.17268
지	-5.2059
▁"	-5.26742
한	-5.36225
?	-5.36639
를	-5.49884
만	-5.53648
▁너무	-5.56942
로	-5.65021
!	-5.66231
▁정말	-5.71837
▁이	-5.73123
나	-5.7729
게	-5.79748
영화	-5.85118
▁진짜	-5.91078
과	-5.94322
리	-5.95053
~	-5.95506
"	-5.98805
기	-6.0186
어	-6.06476
라	-6.0788
인	-6.08773
아	-6.11142
하고	-6.13224
으로	-6.1674
점	-6.19322
네	-6.20865
▁안	-6.27925
▁잘	-6.2828
에서	-6.28642
서	-6.29382
와	-6.2994
들	-6.31444
▁그	-6.31851
요	-6.31946
자	-6.38735
하는	-6.39001
."	-6.40365
▁1	-6.41008
▁다	-6.41506
해	-6.42723
▁왜	-6.42743
▁수	-6.43068
▁더	-6.43674
거	-6.45052
....	-6.4548
!!	-6.46374
네요	-6.46811
▁이런	-6.49445
▁아	-6.50941
음	-6.55316
대	-6.57317
면	-6.58078
스	-6.58102
▁그냥	-6.59988
▁본	-6.60063
수	-6.6232
하	-6.63898
▁드라마	-6.64904
니	-6.66273
시	-6.68363
야	-6.72917
▁보고	-6.73449
지만	-6.7346
함	-6.73539
사	-6.73612
하다	-6.75326
▁10	-6.76076
하게	-6.77158
▁연기	-6.77303
일	-6.7781
▁내	-6.78905
▁평점	-6.79246
이다	-6.81307
▁영화를	-6.82222
▁한	-6.82368
정	-6.8353
진	-6.83551
주	-6.84868
여	-6.85567
▁좀	-6.86193
데	-6.90519
보다	-6.9078
우	-6.91043
구	-6.91354
▁최고	-6.92483
미	-6.93819
▁못	-6.94879
▁봤는데	-6.95096
들이	-6.95309
할	-6.95754
드	-6.96423
임	-6.96948
▁참	-6.97147
까지	-6.97867
는데	-6.98203
▁쓰레기	-6.98683
성	-6.9902
▁없는	-6.9916
상	-7.00089
듯	-7.00853
▁없다	-7.01008
▁최고의	-7.01097
▁이거	-7.01132
▁ᄏᄏ	-7.01198
보	-7.01594
냐	-7.01682
신	-7.01746
안	-7.02419
▁영화는	-7.02428
▁나	-7.02924
해서	-7.03135
▁스토리	-7.04762
▁영화가	-7.05241
던	-7.05901
▁이건	-7.06143
▁내가	-7.06181
장	-7.0628
▁완전	-7.07489
▁개	-7.07564
▁있는	-7.07644
▁2	-7.0924
치	-7.09905
▁것	-7.10415
전	-7.11003
▁보는	-7.1162
ᄏᄏ	-7.12037
▁다시	-7.13256
마	-7.1442
▁좋은	-7.14536
트	-7.14604
!!!	-7.14645
적	-7.15619
원	-7.16556
▁이렇게	-7.16785
부	-7.16897
중	-7.17157
▁말	-7.18384
개	-7.19356
보고	-7.19447
▁이게	-7.19652
화	-7.19957
건	-7.20167
랑	-7.20552
오	-7.20642
려	-7.22195
질	-7.22438
▁3	-7.2262
세	-7.2301
^^	-7.23691
러	-7.25502
때	-7.25871
히	-7.26282
▁뭐	-7.26818
▁난	-7.27689
물	-7.27774
1	-7.2786
분	-7.28142
▁지	-7.2868
내	-7.29296
▁보	-7.29336
ᄏ	-7.29847
비	-7.30558
~~	-7.31403
▁재밌게	-7.31552
▁평점이	-7.31772
▁많이	-7.32134
년	-7.33392
소	-7.33776
그	-7.34333
2	-7.34474
▁저	-7.34838
인데	-7.34984
;;	-7.36119
▁하	-7.36195
▁작품	-7.36307
적인	-7.37037
▁감동	-7.37116
진짜	-7.3753
▁전	-7.37799
▁별로	-7.39371
▁오	-7.3942
▁생각	-7.39575
▁넘	-7.39803
▁볼	-7.40299
▁그리고	-7.40322
▁역시	-7.40638
라고	-7.40657
▁또	-7.4184
것	-7.42632
말	-7.43045
부터	-7.43872
용	-7.43951
▁무	-7.4411
감	-7.44207
하지	-7.44655
▁하는	-7.45214
같은	-7.45628
??	-7.46121
▁마지막	-7.46399
▁감독	-7.46883
했다	-7.4691
▁재미	-7.47108
▁주	-7.47308
식	-7.47581
'	-7.47889
습니다	-7.47978
입니다	-7.49143
제	-7.49697
▁시간	-7.50872
▁하나	-7.51035
영	-7.52278
급	-7.52422
▁꼭	-7.5287
본	-7.53389
▁없고	-7.53819
▁액션	-7.54624
조	-7.5468
▁아깝다	-7.54704
▁이야기	-7.5524
▁사	-7.55283
란	-7.55314
▁중	-7.55526
남	-7.55712
동	-7.56281
군	-7.56408
▁별	-7.56415
너무	-7.56421
이나	-7.56964
씨	-7.5711
▁아니	-7.57188
라는	-7.57461
더	-7.5808
▁무슨	-7.58419
▁ᄏᄏᄏ	-7.58507
걸	-7.58529
▁지금	-7.58766
작	-7.58853
된	-7.59196
정말	-7.59362
▁김	-7.59598
무	-7.59852
▁명작	-7.59894
ᅲᅲ	-7.60122
▁가장	-7.60408
▁다른	-7.60657
드라마	-7.61041
▁기대	-7.61049
어요	-7.61113
선	-7.61369
연	-7.61595
▁만든	-7.61921
좀	-7.6234
편	-7.62596
에게	-7.62872
▁보면	-7.63194
없는	-7.63505
▁할	-7.6375
;	-7.6409
디	-7.64197
▁유	-7.64548
▁정	-7.64564
▁마	-7.65127
유	-7.65246
줄	-7.65322
▁자	-7.65324
호	-7.65374
▁미	-7.65479
▁비	-7.65638
▁대	-7.65833
▁사랑	-7.65934
있는	-7.66288
▁한국	-7.66723
위	-7.66725
ᄏᄏᄏ	-7.6698
)	-7.67045
▁느낌	-7.67288
▁일	-7.67923
린	-7.68046
당	-7.68252
바	-7.68827
모	-7.69188
▁조	-7.69475
▁배우	-7.69822
심	-7.70088
긴	-7.70656
▁처음	-7.71236
르	-7.71241
저	-7.7152
3	-7.71865
▁신	-7.71938
래	-7.72508
명	-7.7252
크	-7.72656
단	-7.73132
난	-7.7378
▁좋아	-7.73814
희	-7.74407
노	-7.7446
▁내용	-7.74529
울	-7.7453
▁ᅲᅲ	-7.74652
▁연출	-7.75158
처럼	-7.75392
▁ᄏ	-7.75666
한다	-7.76428
살	-7.76643
인지	-7.76712
▁일본	-7.77277
으면	-7.77488
▁말이	-7.77791
▁짱	-7.77819
▁거	-7.78515
▁어	-7.78715
▁알	-7.78955
▁두	-7.79102
ᅲ	-7.79382
민	-7.79561
타	-7.79605
준	-7.80347
▁끝까지	-7.80401
연기	-7.80453
워	-7.80538
▁영화다	-7.80698
두	-7.80983
▁돈	-7.81201
▁때	-7.81278
간	-7.81437
레	-7.81439
▁같은	-7.81686
들의	-7.8185
▁있다	-7.82887
▁ᅳᅳ	-7.83106
경	-7.8365
▁좋다	-7.83737
하나	-7.83825
▁여자	-7.84138
(	-7.84578
죠	-7.84729
며	-7.85381
▁'	-7.85953
▁사람	-7.85969
면서	-7.86158
프	-7.87254
운	-7.88205
파	-7.88285
▁하지만	-7.88744
하지만	-7.88796
▁해	-7.88861
인가	-7.88897
생	-7.8922
차	-7.89416
▁부	-7.89441
판	-7.89751
재	-7.89775
든	-7.89777
했던	-7.89983
▁대한	-7.9044
▁전혀	-7.91058
방	-7.91098
▁기	-7.91337
▁같다	-7.91681
되는	-7.92015
▁뭔가	-7.92174
▁아니라	-7.92187
잘	-7.92358
합니다	-7.92365
▁구	-7.92476
▁남	-7.92506
▁봤다	-7.92587
들은	-7.92767
▁솔직히	-7.93025
▁와	-7.93139
▁제	-7.93139
▁인생	-7.93173
ᅳᅳ	-7.93452
▁재밌다	-7.93558
▁최악	-7.93666
▁장	-7.9391
하면	-7.93942
때문에	-7.94034
피	-7.94286
이랑	-7.94619
길	-7.9501
구나	-7.95011
발	-7.9503
엔	-7.95205
지는	-7.95344
▁아주	-7.9545
류	-7.95478
이라	-7.95718
▁시	-7.96417
루	-7.96511
▁봐도	-7.966
▁그런	-7.96807
▁굿	-7.97011
박	-7.97276
티	-7.97308
카	-7.97328
▁많은	-7.97411
▁강	-7.97526
▁후	-7.98159
▁모두	-7.9818
▁소	-7.98431
날	-7.98458
▁ᄒᄒ	-7.98808
▁계속	-7.99067
▁아닌	-7.99092
▁애	-7.99223
▁배우들	-7.99365
▁장면	-7.9947
▁대박	-7.9955
-	-7.9969
후	-7.99719
었다	-7.99887
까	-8.00167
관	-8.00192
터	-8.00209
▁반	-8.00216
으	-8.00266
▁실망	-8.00455
림	-8.00617
시간	-8.00772
▁만들어	-8.00807
번	-8.00871
▁재미없다	-8.01247
▁한번	-8.01497
▁우	-8.01668
▁내용이	-8.01821
▁나오는	-8.02023
▁어떻게	-8.02093
▁줄	-8.02125
▁내내	-8.02302
▁재미있게	-8.02593
애	-8.026
▁최악의	-8.03047
국	-8.03069
없이	-8.03271
적으로	-8.03349
실	-8.03568
▁4	-8.03827
즈	-8.03858
▁코미디	-8.03968
▁모	-8.04117
▁이걸	-8.04156
다가	-8.0444
▁이영화	-8.04479
▁않고	-8.04491
생각	-8.0459
봤는데	-8.04852
▁남자	-8.05503
반	-8.06186
▁보기	-8.06328
4	-8.06608
한테	-8.07065
o	-8.07312
10	-8.07319
▁끝	-8.0739
보는	-8.07553
▁불	-8.07724
▁그래도	-8.07741
님	-8.08067
▁딱	-8.08948
등	-8.08983
▁우리	-8.09055
▁모든	-8.09275
겨	-8.09744
하네	-8.09822
버	-8.10143
이라는	-8.10631
▁되	-8.11322
▁아니다	-8.11532
스토리	-8.11684
점도	-8.12025
없다	-8.12387
▁만드는	-8.12427
형	-8.1243
현	-8.12524
보면	-8.1264
▁이상	-8.12943
▁현실	-8.13012
▁주인공	-8.13482
▁연기가	-8.14139
되	-8.1417
▁공포	-8.14295
매	-8.14421
▁박	-8.14533
▁5	-8.14635
▁심	-8.15302
배	-8.15326
▁노	-8.1538
▁이제	-8.15438
망	-8.15511
배우	-8.15907
▁듯	-8.16205
▁스	-8.16225
▁기억	-8.1644
▁7	-8.1659
▁추천	-8.16634
태	-8.17132
회	-8.17187
하네요	-8.17346
▁건	-8.1751
산	-8.17823
▁제일	-8.181
▁아름다운	-8.18244
▁연기도	-8.18444
▁욕	-8.18458
~~~	-8.18555
토	-8.18623
▁8	-8.18686
▁근데	-8.18712
이고	-8.18759
▁개봉	-8.18798
달	-8.19027
져	-8.19057
▁반전	-8.19287
이란	-8.19449
▁요즘	-8.19532
▁수준	-8.19552
▁않은	-8.19699
어서	-8.19984
▁하고	-8.20048
▁않는	-8.2015
ᄒᄒ	-8.20181
▁조금	-8.20339
겠다	-8.20476
▁전개	-8.20593
참	-8.20799
키	-8.21003
체	-8.21123
지도	-8.21208
▁감독이	-8.21228
▁보다	-8.21228
년대	-8.21247
▁속	-8.21324
▁표현	-8.21361
격	-8.21382
점이	-8.21421
▁이해	-8.21486
▁싶다	-8.21698
들을	-8.21812
♥	-8.22109
▁눈	-8.22184
공	-8.22226
것도	-8.22336
▁원	-8.22369
▁아니고	-8.22681
니까	-8.23166
▁보다가	-8.23478
왜	-8.23642
다니	-8.23847
▁바	-8.23884
▁스릴러	-8.24158
▁걸	-8.24326
▁9	-8.24492
못	-8.24622
▁나는	-8.24666
▁초	-8.24837
정도	-8.24982
사람	-8.25071
▁눈물	-8.25172
▁제대로	-8.2526
▁애니	-8.25517
▁공	-8.25521
평점	-8.25608
▁음악	-8.25671
▁0	-8.25841
▁재	-8.26124
코	-8.26165
문	-8.26191
▁배	-8.26286
예	-8.26292
종	-8.26303
▁절대	-8.26487
▁내용도	-8.26636
이라고	-8.2677
▁공감	-8.2683
▁파	-8.27435
해요	-8.27466
!!!!	-8.27534
,,	-8.27681
하기	-8.27712
▁나오	-8.27777
▁스토리가	-8.27888
▁원작	-8.28078
석	-8.28133
않	-8.28136
▁피	-8.2822
a	-8.28452
죽	-8.28735
건지	-8.2876
▁영화라고	-8.28865
속	-8.28867
승	-8.29137
▁남는	-8.29387
▁정도	-8.29426
짱	-8.29506
테	-8.29746
▁대사	-8.29761
극	-8.29883
8	-8.30071
▁시간이	-8.30107
했는데	-8.30109
따	-8.30138
▁캐릭터	-8.30145
였다	-8.30149
▁때문에	-8.30163
▁OO	-8.30278
녀	-8.30332
▁울	-8.307
이런	-8.30705
▁엄청	-8.31172
락	-8.31201
릴	-8.31405
역	-8.31525
▁막장	-8.31653
▁가족	-8.31678
▁되는	-8.31697
인듯	-8.3202
ᄒ	-8.32032
▁나름	-8.32449
ᅳ	-8.32477
뿐	-8.32727
▁영상	-8.32958
▁차라리	-8.33018
력	-8.33026
▁아직도	-8.33052
▁아까운	-8.33383
▁발	-8.33403
""""	-8.33404
▁특히	-8.3387
▁뻔한	-8.34068
▁영화의	-8.34147
▁여운이	-8.34149
▁쓰	-8.34253
라도	-8.34253
▁주는	-8.34312
창	-8.34364
▁진심	-8.34514
▁미국	-8.34631
없	-8.34797
최고	-8.35047
▁재밌어요	-8.35072
/	-8.3524
▁몇	-8.35429
e	-8.35462
5	-8.35516
▁없	-8.35517
▁매력	-8.35711
▁성	-8.35789
▁영화입니다	-8.35826
▁여	-8.3584
▁좋았다	-8.35886
▁연	-8.36007
업	-8.36202
▁날	-8.36216
케	-8.36238
▁진	-8.36292
▁좋고	-8.36476
▁나온	-8.3653
t	-8.3663
▁세	-8.3666
▁보면서	-8.36685
▁결말	-8.37034
▁재미도	-8.3716
▁인간	-8.37379
그냥	-8.37515
는거	-8.37556
던데	-8.37661
▁우리나라	-8.37706
사랑	-8.3774
집	-8.37757
론	-8.37879
포	-8.37998
해도	-8.38115
..."	-8.38221
▁공포영화	-8.3838
점은	-8.3863
▁20	-8.38662
▁스토리도	-8.38681
▁될	-8.38752
계	-8.38885
▁도대체	-8.38941
▁차	-8.3898
는지	-8.38989
금	-8.39035
7	-8.39313
먹	-8.39391
▁멋진	-8.39432
▁사실	-8.39534
는게	-8.39846
통	-8.40062
▁봤	-8.40145
▁감독의	-8.40321
려고	-8.40408
능	-8.40649
▁걍	-8.40684
▁이해가	-8.40746
▁만들	-8.40796
▁매	-8.40998
▁있	-8.41103
양	-8.41206
브	-8.41362
쳐	-8.41527
넘	-8.41578
잼	-8.41622
;;;	-8.41644
장면	-8.41721
▁좋아하는	-8.41792
중에	-8.41869
▁재밌	-8.41943
▁최	-8.41979
▁봤습니다	-8.42126
더라	-8.42276
▁예	-8.42283
▁봤던	-8.42304
▁허	-8.42392
▁서	-8.42613
감독	-8.4283
▁재밋	-8.42862
▁없음	-8.42939
.."	-8.42971
▁동	-8.42977
▁제목	-8.43055
절	-8.43117
▁연기력	-8.43314
감동	-8.43418
▁나도	-8.43507
▁시리즈	-8.43524
d	-8.43695
움	-8.43794
▁머	-8.43852
▁ᄏᄏᄏᄏ	-8.43855
▁않	-8.44139
꺼	-8.44174
▁가슴	-8.44275
▁마지막에	-8.44337
▁막	-8.44349
▁오랜만에	-8.44555
리는	-8.44587
밖에	-8.4464
색	-8.44675
볼	-8.44996
만큼	-8.45166
▁된	-8.45465
▁타	-8.45494
뭐	-8.45591
설	-8.45627
▁시나리오	-8.45662
▁생각이	-8.45743
▁인	-8.45791
▁싶은	-8.45892
???	-8.45964
학	-8.46017
슬	-8.46428
▁지루한	-8.46523
▁B	-8.46571
▁맞	-8.46671
▁영	-8.46815
불	-8.46824
6	-8.46912
가는	-8.47011
악	-8.47063
▁수작	-8.47122
재밌	-8.47188
▁시작	-8.47237
▁영화에	-8.47508
ᅮᅮ	-8.47526
▁어떤	-8.47801
알	-8.4791
▁지루하고	-8.47973
▁뭘	-8.48198
교	-8.48267
▁함께	-8.48583
▁결국	-8.4872
탄	-8.48762
있다	-8.48812
▁기분	-8.49105
▁망	-8.49123
김	-8.49272
메	-8.49274
ᄏᄏᄏᄏ	-8.49276
▁사람들	-8.4936
하면서	-8.49419
▁최고다	-8.49501
돈	-8.49643
스트	-8.49735
▁OOO	-8.49855
▁재밌는	-8.49955
▁긴장감	-8.5005
▁죽	-8.50235
▁재미가	-8.50319
▁졸작	-8.50547
▁그저	-8.50549
▁알바	-8.50577
강	-8.50765
▁큰	-8.50845
▁지루함	-8.50881
재미	-8.51004
봄	-8.51008
▁뭔	-8.51205
잡	-8.51242
하며	-8.51258
▁살	-8.51584
▁배우들의	-8.516
머	-8.51672
▁들	-8.51829
갈	-8.5186
▁6	-8.51877
▁ᅲ	-8.519
행	-8.51941
▁노래	-8.52476
기도	-8.52768
봤다	-8.52939
투	-8.52991
!"	-8.53037
근	-8.53191
입	-8.5321
s	-8.53334
▁오늘	-8.53447
▁^^	-8.53628
구만	-8.53634
▁보는내내	-8.5371
주는	-8.53787
▁사람이	-8.53942
았	-8.53998
▁없이	-8.54019
봐도	-8.54023
▁설정	-8.54262
할수	-8.54295
▁필요	-8.54408
▁괜찮은	-8.54414
▁개인적으로	-8.54441
초	-8.5457
▁선	-8.54708
▁만화	-8.54794
▁못한	-8.54804
▁영화로	-8.54944
병	-8.55132
▁한국영화	-8.55182
▁"""	-8.55219
~!	-8.55232
▁얼마나	-8.55331
었는데	-8.5536
글	-8.5556
▁그렇게	-8.5594
너	-8.56062
봤	-8.56083
▁코믹	-8.56227
▁보세요	-8.56255
▁애니메이션	-8.56266
액션	-8.56689
▁아무	-8.57
잇	-8.57443
▁지루하다	-8.57783
권	-8.57874
니다	-8.57884
▁소재	-8.57903
평	-8.5796
작품	-8.58148
나는	-8.58402
▁후회	-8.58858
했	-8.59154
▁엔딩	-8.59198
▁안되는	-8.59383
른	-8.59689
▁연기는	-8.59828
▁캐스팅	-8.60016
▁잠	-8.60039
▁아무리	-8.60066
▁총	-8.60078
짐	-8.60109
▁아이	-8.60177
▁느낌이	-8.60243
천	-8.60398
봐	-8.60491
▁기억에	-8.60543
▁명	-8.60641
▁봐야	-8.60775
▁제발	-8.60896
▁더빙	-8.60897
버린	-8.61236
기에	-8.61881
▁물	-8.61914
이상	-8.62057
▁상	-8.62058
했음	-8.62062
대로	-8.62093
기는	-8.62204
거야	-8.62403
▁모르겠다	-8.62482
다고	-8.62671
난다	-8.63238
▁졸	-8.63399
이지만	-8.63615
영화는	-8.63689
▁열	-8.63757
▁좋아요	-8.63943
환	-8.64104
점을	-8.64283
▁평	-8.64286
이었다	-8.64406
▁것이	-8.64572
m	-8.64612
▁극장에서	-8.64783
된다	-8.64902
▁""""	-8.64984
▁매우	-8.65056
이야	-8.65077
▁강추	-8.65091
하는데	-8.65179
슨	-8.65259
친	-8.65311
▁전쟁	-8.65314
▁분위기	-8.65387
▁보게	-8.65539
▁같이	-8.65676
점대	-8.65821
언	-8.6588
▁호	-8.65911
▁들어	-8.65961
▁토	-8.6609
보단	-8.66422
빠	-8.66523
각	-8.66688
결	-8.66741
증	-8.66861
▁외	-8.66917
▁재밌음	-8.671
별	-8.67117
담	-8.67152
▁하나도	-8.67574
▁억지	-8.67586
을까	-8.67735
▁한다	-8.67823
▁알고	-8.67911
ᅮ	-8.68001
짜	-8.68061
아니	-8.68072
침	-8.68132
▁준	-8.68193
▁정신	-8.68228
▁있고	-8.68246
법	-8.68418
해야	-8.68639
▁베	-8.6879
온	-8.68953
끼	-8.69018
▁찾아	-8.69129
▁존	-8.69201
▁모습	-8.69209
▁봤어요	-8.69363
▁않는다	-8.69364
내용	-8.6953
▁웃	-8.69689
▁보지	-8.69817
▁따라	-8.69845
▁애들	-8.69934
레이	-8.69939
표	-8.70043
▁중국	-8.70089
▁치	-8.70138
련	-8.70148
▁마음이	-8.70176
이네요	-8.70183
었던	-8.70255
▁마음	-8.70279
▁화	-8.70332
▁출연	-8.70527
▁예술	-8.70619
군요	-8.70622
▁없어	-8.70654
▁약	-8.70664
▁작가	-8.70674
새	-8.70714
▁단	-8.70859
▁입	-8.70969
▁문제	-8.7106
▁잼	-8.71172
범	-8.71216
▁행복	-8.71296
씬	-8.71303
▁위	-8.71309
▁위한	-8.71386
▁위해	-8.71431
블	-8.71527
플	-8.71769
▁눈물이	-8.71857
보니	-8.71859
▁별점	-8.71866
▁길	-8.72244
이건	-8.72608
술	-8.72633
이네	-8.72859
▁걸작	-8.72891
▁웃기	-8.73075
▁극	-8.7311
▁ᄒ	-8.73119
싶	-8.73222
좋아	-8.73265
될	-8.73296
백	-8.73376
▁간	-8.73491
g	-8.73511
에도	-8.73577
▁실	-8.73744
그리고	-8.73777
▁주연	-8.738
▁자기	-8.73989
여자	-8.74046
▁스릴	-8.74054
▁높	-8.7419
존	-8.74222
짓	-8.74227
느낌	-8.7425
▁있었	-8.74458
듯한	-8.745
▁손	-8.74579
▁지루	-8.74635
▁훨씬	-8.74639
▁너무나	-8.74646
튼	-8.74658
라면	-8.74826
▁감동이	-8.74932
좋	-8.7498
▁얼굴	-8.75021
치고	-8.75029
뻔	-8.75155
▁대체	-8.75174
▁없었다	-8.752
▁여주인공	-8.75339
났	-8.75363
완전	-8.75372
기를	-8.75513
▁추	-8.75563
인줄	-8.75731
▁좋	-8.75807
▁잡	-8.7588
9	-8.75888
칠	-8.7595
어야	-8.76041
>	-8.76108
올	-8.76265
▁미친	-8.7637
▁그만	-8.76486
소리	-8.76517
직	-8.76552
▁갈수록	-8.76589
쓰레기	-8.76618
▁글	-8.7663
▁많	-8.76938
l	-8.76953
▁않다	-8.76968
베	-8.76977
▁똥	-8.7702
▁점수	-8.7719
쓰	-8.77423
수준	-8.7756
나요	-8.77692
외	-8.77737
+	-8.77768
록	-8.77857
▁존나	-8.77923
수가	-8.78042
▁너	-8.78052
▁힘	-8.78056
▁그나마	-8.78064
▁카	-8.78095
▁있을	-8.78108
▁의미	-8.78196
리고	-8.78294
▁영상미	-8.78531
▁경	-8.7854
▁기억이	-8.78548
있	-8.78591
았다	-8.78954
▁이딴	-8.79025
이거	-8.79249
거지	-8.79273
름	-8.79299
라서	-8.79329
y	-8.79358
적이	-8.7936
해라	-8.79675
다는	-8.79716
▁다큐	-8.79799
왕	-8.79897
▁몰입도	-8.79975
"""	-8.80117
▁ᅮᅮ	-8.8015
▁보여주는	-8.80157
라니	-8.80237
▁밖에	-8.80314
막	-8.80326
커	-8.80377
▁누가	-8.80407
▁안되	-8.80475
▁유치	-8.80491
건가	-8.80514
만한	-8.80571
▁로맨스	-8.80627
열	-8.80636
▁영화네요	-8.80744
▁배경	-8.80778
영화를	-8.81013
출	-8.81065
▁가슴이	-8.81268
길래	-8.81365
찍	-8.81395
▁재미없음	-8.81444
▁내용은	-8.81474
▁당	-8.81497
였음	-8.81519
졌	-8.81825
쉬	-8.81909
영화가	-8.81943
▁먹	-8.82086
▁그래서	-8.82212
▁적	-8.82215
이지	-8.82374
▁연기를	-8.8238
▁볼만한	-8.8245
,,,	-8.82454
치는	-8.82575
더니	-8.82736
욕	-8.82756
순	-8.8282
▁결말이	-8.82979
퍼	-8.82993
맨	-8.83113
?"	-8.83418
▁구성	-8.83537
▁영화중	-8.83592
▁쓰레기영화	-8.83728
▁꽤	-8.83757
▁상황	-8.83886
나오는	-8.83978
있고	-8.84307
▁재미있다	-8.84311
겠	-8.84367
h	-8.84374
▁발연기	-8.84444
▁그러	-8.84517
▁엄마	-8.84582
훈	-8.8466
▁자체	-8.84726
향	-8.84739
▁메	-8.84884
▁-	-8.84932
▁감	-8.85034
▁등	-8.85219
▁어느	-8.85304
이라도	-8.85423
▁변	-8.85478
p	-8.85613
▁허접	-8.85635
청	-8.85729
▁재밌고	-8.85896
▁대해	-8.85972
편이	-8.86091
i	-8.86143
▁뿐	-8.86273
광	-8.86283
▁관객	-8.86295
또	-8.86422
▁얘기	-8.86431
▁감동도	-8.86476
년이	-8.86499
▁바로	-8.86603
▁웃음	-8.86644
배우들	-8.86666
재미있	-8.86907
했지만	-8.87072
놓고	-8.87236
▁영화였다	-8.87352
▁노잼	-8.87422
척	-8.87627
겠지	-8.8763
▁올	-8.87723
▁것을	-8.87747
됨	-8.87881
▁다음	-8.87987
▁이름	-8.88112
▁평가	-8.8817
▁어설픈	-8.88175
할때	-8.88492
었	-8.88576
께	-8.89002
▁악	-8.89057
아닌	-8.8934
▁같아요	-8.89548
b	-8.89621
기가	-8.90055
♡	-8.90076
▁CG	-8.90077
▁딸	-8.90088
없고	-8.90136
내가	-8.9014
는건	-8.90207
완	-8.90322
약	-8.90417
▁사람들이	-8.90574
▁영화관에서	-8.90751
땜에	-8.90754
▁시즌	-8.90908
▁몰입	-8.90918
기만	-8.90929
▁30	-8.9093
것이	-8.90953
▁뒤	-8.91089
느	-8.91187
▁장난	-8.91282
▁다들	-8.9133
복	-8.91367
▁나왔	-8.91387
셨	-8.91462
▁전부	-8.91504
목	-8.91648
▁백	-8.91682
▁편	-8.91709
줘	-8.91859
▁맘에	-8.91866
▁새	-8.91866
▁같	-8.91894
▁주고	-8.9192
스러운	-8.91956
분들	-8.92
▁상당히	-8.92016
▁아쉽다	-8.9203
시대	-8.92224
▁당시	-8.9228
▁감동적인	-8.92311
▁성룡	-8.92409
눈	-8.92463
▁생각보다	-8.92477
▁제작	-8.92608
처	-8.9264
이야기	-8.92657
없음	-8.92701
▁볼만	-8.92816
▁음	-8.9296
주의	-8.92977
지금	-8.93069
▁시대	-8.93237
▁포스터	-8.93292
혜	-8.9333
▁살아	-8.93348
놈	-8.93392
▁존재	-8.936
부분	-8.93606
었음	-8.93755
▁잔잔한	-8.9379
▁첨	-8.94029
추	-8.94094
▁나이	-8.94131
보기	-8.94245
▁아님	-8.94409
▁간만에	-8.9449
▁약간	-8.94784
▁갈	-8.94812
나오	-8.94842
▁나올	-8.94942
덕	-8.95026
들어	-8.95275
▁생각을	-8.95323
습	-8.9546
남자	-8.95478
에는	-8.95521
▁높은	-8.95605
▁재미있는	-8.95682
▁좋은데	-8.95729
구요	-8.95788
채	-8.95818
▁그대로	-8.95986
으나	-8.96011
▁혼자	-8.96066
r	-8.96074
먼	-8.96111
효	-8.96174
▁여기	-8.96335
독	-8.96353
▁재미없	-8.96353
처음	-8.96431
▁친구	-8.96475
▁만들었	-8.96696
들에게	-8.96712
▁있을까	-8.96778
▁옛날	-8.9679
▁된다	-8.96856
빈	-8.96983
▁것도	-8.97078
합	-8.97338
보다는	-8.97388
진다	-8.97495
▁중간에	-8.97568
션	-8.97594
▁감성	-8.97695
낸	-8.97746
▁천	-8.97813
▁마음에	-8.97865
▁소리	-8.97903
탈	-8.98006
린다	-8.98123
▁같은데	-8.98183
▁스토리는	-8.98201
에선	-8.98251
었어요	-8.98315
들도	-8.98375
▁삼	-8.98587
▁뭐야	-8.98612
▁찾	-8.98725
^	-8.98742
▁준다	-8.98769
했어요	-8.98791
▁거의	-8.98811
웃	-8.98893
▁재미없는	-8.98922
▁네이버	-8.98952
▁판타지	-8.99319
▁있지만	-8.99364
▁부족	-8.99376
▁야	-8.99449
▁재미있어요	-8.99507
▁진정한	-8.99514
▁코	-8.99746
재밋	-8.99772
D	-8.99906
맞	-8.99936
조차	-9.00007
▁분	-9.0018
숙	-9.0041
▁버	-9.00522
▁감동을	-9.00631
k	-9.00671
▁포	-9.00741
다면	-9.00792
▁오래	-9.00819
겟	-9.00923
혀	-9.00969
편은	-9.00982
▁정도로	-9.01076
익	-9.01123
기대	-9.01134
▁저런	-9.01182
좋은	-9.0132
▁했는데	-9.0132
▁나와서	-9.01336
▁말도	-9.01399
▁재미있	-9.01402
▁재밌네요	-9.01503
료	-9.0152
▁굉장히	-9.01548
월	-9.0159
였	-9.01633
허	-9.01701
▁이영화를	-9.01755
▁싶	-9.01852
▁봐서	-9.01884
▁꿈	-9.01981
▁봤지만	-9.02206
한거	-9.02248
▁않았	-9.02415
▁멜로	-9.0242
0	-9.02501
▁데	-9.02569
▁뭐지	-9.02616
▁언제	-9.02666
▁산	-9.027
OO	-9.02701
▁배우들이	-9.02709
을때	-9.0271
▁보니	-9.02712
모르	-9.03094
▁아이들	-9.0322
▁힘들	-9.03262
햇	-9.03356
▁목소리	-9.0339
되어	-9.03416
▁번	-9.03426
▁재미는	-9.03478
▁감정	-9.03563
정도로	-9.03649
마지막	-9.03723
▁종	-9.03741
_	-9.03781
겠지만	-9.03936
▁패	-9.04204
▁몸	-9.04318
▁끝나	-9.04405
▁비교	-9.0441
돌	-9.04549
▁장르	-9.04564
▁충격	-9.04624
다시	-9.04633
▁숨	-9.04676
▁각본	-9.04943
윤	-9.04962
▁추억	-9.05067
같이	-9.05111
▁궁금	-9.0518
예요	-9.05256
링	-9.0526
▁낮은	-9.05367
▁생각하게	-9.05383
▁돌아	-9.05434
~!!	-9.05495
잖아	-9.05596
▁머리	-9.05616
▁아버지	-9.0567
땐	-9.0571
▁영화인데	-9.05715
주인공	-9.05766
건데	-9.05775
족	-9.05912
▁극장판	-9.06041
▁줄거리	-9.06138
쯤	-9.06226
▁제가	-9.06244
ᄉ	-9.06254
▁실화	-9.0646
▁부분	-9.06471
▁영화임	-9.06529
▁터	-9.06548
▁그리	-9.06615
▁담	-9.06625
▁집중	-9.06977
했습니다	-9.06984
▁목	-9.07022
▁방송	-9.07138
귀	-9.07189
견	-9.07189
ᄋ	-9.07251
간다	-9.07272
시키	-9.07316
만들	-9.0733
▁평점을	-9.07533
별로	-9.07635
거나	-9.07761
▁뭐냐	-9.07802
▁있어서	-9.07862
▁초딩	-9.07896
놈들	-9.08111
▁갑자기	-9.08152
근데	-9.08244
▁대단한	-9.08291
▁역사	-9.0831
▁윤	-9.08338
해지는	-9.08517
▁항상	-9.08546
▁장면이	-9.08554
▁훌륭한	-9.0859
이라면	-9.0865
▁세상	-9.08679
응	-9.08762
츠	-9.088
▁아직	-9.08838
년전	-9.08873
곡	-9.08894
▁감독님	-9.08991
혹	-9.08996
▁앞	-9.09013
세요	-9.09087
봐서	-9.09241
념	-9.09309
써	-9.09328
거리	-9.09336
▁생	-9.09375
▁되어	-9.09417
시리즈	-9.09443
▁있어	-9.09541
▁어디서	-9.09751
▁짜	-9.09774
슴	-9.09819
억	-9.0989
아서	-9.10032
▁예상	-9.10093
f	-9.10137
연출	-9.10149
변	-9.10169
철	-9.10209
듣	-9.10258
▁보여주	-9.10363
▁흥행	-9.10364
▁현	-9.10364
끝	-9.10433
▁관	-9.10461
▁비해	-9.10494
▁팬	-9.10515
버리	-9.10545
▁사회	-9.10563
것같다	-9.10614
잔	-9.10614
▁봐	-9.10616
▁나의	-9.10721
품	-9.11212
▁떠	-9.11265
▁크	-9.11351
전개	-9.11387
였는데	-9.11394
▁새로운	-9.1142
▁어이없	-9.11487
틀	-9.11519
▁하지	-9.11704
찬	-9.11916
▁누구	-9.1194
▁그런지	-9.12093
▁비디오	-9.12302
으니	-9.12391
했으면	-9.12438
앗	-9.12475
▁화면	-9.12545
▁암	-9.12572
▁양	-9.12585
▁왕	-9.12687
▁자체가	-9.12808
▁하다	-9.12872
▁써	-9.12909
▁꿀잼	-9.13001
▁방	-9.13032
▁찍	-9.13056
▁충분히	-9.13059
▁봐라	-9.13215
▁빨리	-9.13282
▁쳐	-9.13345
▁안된다	-9.13385
마다	-9.13418
▁바라	-9.13432
▁90	-9.13525
▁돌	-9.13535
▁첫	-9.13651
하여	-9.13666
▁교	-9.13737
지루	-9.13774
▁순	-9.13852
▁TV	-9.13861
▁봤음	-9.13972
▁주인공이	-9.14077
▁짜증	-9.14165
하시	-9.14181
▁연출력	-9.14321
▁드	-9.14404
▁감동적이	-9.14444
적이고	-9.14507
~~~~	-9.14517
▁만점	-9.14543
이게	-9.14559
▁성우	-9.14612
거다	-9.14621
▁그러나	-9.14711
▁잼있	-9.14773
▁잘못	-9.14818
▁ᅳ	-9.14991
같다	-9.14999
▁알게	-9.15024
▁여배우	-9.15155
쿠	-9.15178
▁놀	-9.15347
▁맛	-9.15365
▁처음부터	-9.15429
▁봄	-9.15435
▁tv	-9.15458
▁개연성	-9.15472
되고	-9.1551
최고의	-9.1558
듬	-9.15607
나서	-9.15726
▁의도	-9.15796
음악	-9.15853
▁문	-9.15861
▁뭐가	-9.15904
▁있었다	-9.15966
▁원작을	-9.16015
▁했다	-9.16021
▁있는데	-9.16122
▁없어서	-9.16148
▁이런영화	-9.16187
▁좋은영화	-9.16199
▁가지고	-9.16234
일까	-9.16239
규	-9.16281
역시	-9.16289
성이	-9.16348
▁어디	-9.16357
▁못하는	-9.1637
엇	-9.16382
▁휴	-9.16554
립	-9.16703
▁점점	-9.16755
u	-9.16796
엘	-9.16836
▁good	-9.16837
▁사람은	-9.16854
▁주제	-9.1688
▁세계	-9.16947
이라니	-9.16974
▁요	-9.17008
왔	-9.17048
▁통	-9.17075
▁달	-9.17209
▁영화도	-9.17284
▁태	-9.17361
동안	-9.17397
:	-9.17499
대박	-9.17506
하냐	-9.17543
거냐	-9.17611
팬	-9.17627
▁훌륭	-9.17763
말이	-9.17784
나라	-9.17788
▁집	-9.1779
▁헐	-9.17833
삼	-9.17879
만든	-9.17975
사람들	-9.18027
▁게	-9.18189
▁19	-9.18417
떨어	-9.18432
도록	-9.18503
▁없을	-9.1851
속에	-9.1868
▁교훈	-9.18704
벌	-9.18713
했고	-9.18717
여서	-9.18757
▁아닌가	-9.18838
▁작	-9.18847
▁영화라	-9.19073
아깝다	-9.19147
▁더욱	-9.19156
▁그때	-9.19347
리가	-9.19421
▁좋네요	-9.19456
▁계	-9.19488
▁더럽게	-9.19608
졌다	-9.19618
▁댓글	-9.19648
▁느끼	-9.19666
▁선택	-9.19731
▁아까움	-9.19747
▁질	-9.19765
얼	-9.19865
짝	-9.19872
▁순간	-9.19896
놀	-9.19935
한데	-9.19945
▁좋겠다	-9.20037
염	-9.20242
▁너무너무	-9.2044
밀	-9.20528
껏	-9.20531
싸	-9.20539
▁100	-9.2056
▁레	-9.20737
▁ᄍᄍ	-9.20772
▁슬픈	-9.20787
▁절	-9.20823
하니	-9.20851
봐야	-9.20892
▁삼류	-9.21115
▁생각해	-9.21167
하는게	-9.21198
▁저는	-9.21215
▁나와	-9.21302
▁나온다	-9.21309
▁책	-9.21325
-_-	-9.21334
답	-9.21405
O	-9.21413
▁만족	-9.21422
▁없었	-9.21686
인간	-9.21716
본다	-9.21748
딱	-9.21767
▁b	-9.21787
웠	-9.21808
흘	-9.21948
▁따뜻한	-9.22003
▁설	-9.22116
▁말고	-9.22153
▁시절	-9.22156
것을	-9.22254
하던	-9.22271
▁가는	-9.22279
명작	-9.22297
▁느	-9.22326
▁엄청난	-9.22413
▁그닥	-9.22449
ᄀ	-9.22559
▁사람들은	-9.22602
▁없네	-9.22642
는것	-9.22681
▁해도	-9.22735
n	-9.22817
도없고	-9.22886
▁두번	-9.22904
최	-9.2295
▁한마디로	-9.22996
▁여주	-9.2317
=	-9.2317
▁지나	-9.23174
오는	-9.23244
▁이유	-9.23253
▁해서	-9.23358
▁아쉬운	-9.23484
▁따	-9.23507
▁초반	-9.23558
▁지루해	-9.23622
어도	-9.2371
▁어색	-9.23757
▁끝내	-9.23769
▁낫다	-9.23808
▁뻔	-9.23823
▁노력	-9.24035
▁(	-9.24066
가서	-9.24093
▁깨	-9.24099
주세요	-9.2422
▁먹먹	-9.24403
▁괜찮	-9.24658
▁망작	-9.24665
렌	-9.24667
보다가	-9.24673
▁일단	-9.24736
▁만나	-9.24871
▁당신	-9.25009
이냐	-9.2506
▁재밌는데	-9.25104
▁힘든	-9.25132
▁이영화는	-9.25149
▁재밌었다	-9.25266
@	-9.25273
많	-9.25274
▁흥미진진	-9.25309
곤	-9.25352
▁어릴때	-9.25406
그런	-9.25415
▁것은	-9.25418
책	-9.25463
▁다시봐도	-9.25593
함을	-9.25604
끄	-9.25708
걸까	-9.25714
▁역	-9.25727
소재	-9.25729
아이	-9.25747
반전	-9.25751
흔	-9.25806
▁투	-9.25994
하는거	-9.2604
▁재미없어	-9.26142
,"	-9.26217
보는데	-9.2624
▁감상	-9.26401
오빠	-9.26473
▁모르고	-9.26488
▁보는데	-9.26589
▁극장	-9.26622
▁원래	-9.26634
▁자꾸	-9.26792
▁상상	-9.2684
실망	-9.26874
▁낮	-9.26928
▁편집	-9.26971
▁지금까지	-9.27013
묘	-9.27068
손	-9.27078
▁전개가	-9.27092
킹	-9.2711
년에	-9.27111
▁감독은	-9.272
▁참고	-9.27268
같	-9.27305
▁알았	-9.27401
▁작품이	-9.27472
많이	-9.27567
을듯	-9.27685
스럽다	-9.27712
야지	-9.2773
▁후반부	-9.27746
▁모르는	-9.27781
휴	-9.27968
풍	-9.27993
▁도저히	-9.28042
▁쓴	-9.28071
c	-9.28073
▁인물	-9.2811
▁사랑을	-9.28177
결말	-9.28178
▁이것도	-9.28194
맛	-9.28347
성을	-9.28369
▁복수	-9.28433
이에요	-9.28454
▁느껴	-9.28457
함이	-9.28462
▁돈주고	-9.28497
전에	-9.28695
▁무조건	-9.28786
필	-9.28841
그래도	-9.28846
년도	-9.28877
▁아빠	-9.28881
▁이상한	-9.28885
봐라	-9.28907
황	-9.28939
힌	-9.28982
한번	-9.28988
을텐데	-9.2902
▁병맛	-9.29298
지고	-9.29317
는걸	-9.29329
▁이번	-9.29479
들과	-9.29581
패	-9.29635
령	-9.29738
▁대한민국	-9.2976
▁귀신	-9.29823
▁어쩌	-9.29839
▁완벽한	-9.2993
▁멋있	-9.29999
▁결혼	-9.3024
▁읽	-9.3026
▁개그	-9.3029
,,"	-9.30297
에요	-9.30366
려서	-9.30366
▁80	-9.30394
▁대작	-9.305
▁별루	-9.3056
▁합니다	-9.30569
봉	-9.30575
▁유치한	-9.30646
▁인간의	-9.30694
▁싸	-9.30724
시켜	-9.30726
▁좋음	-9.30867
▁이미	-9.30915
학교	-9.30934
갑	-9.30974
한영화	-9.31006
▁물론	-9.31094
▁있음	-9.31101
▁했	-9.31141
▁바보	-9.3118
축	-9.31192
▁웃긴	-9.31249
▁좋았어요	-9.31256
▁M	-9.31265
▁진실	-9.31312
▁아쉽	-9.31415
▁예고편	-9.3153
▁불륜	-9.316
▁둘	-9.31663
▁과거	-9.31748
▁이정도	-9.31763
▁기대하고	-9.3178
재미없	-9.31789
▁그래픽	-9.31799
슈	-9.31857
▁그게	-9.31875
▁볼수	-9.31889
▁평점은	-9.31932
▁소설	-9.31985
▁나라	-9.32035
뜨	-9.32036
끔	-9.32143
▁느끼게	-9.32201
▁느낄	-9.32208
▁믿고	-9.32267
닥	-9.3227
굿	-9.32295
▁영화보다	-9.32322
뒤	-9.32366
▁수준이	-9.3238
▁저질	-9.32396
꼬	-9.32424
▁굳	-9.32427
▁괜히	-9.32511
▁미화	-9.32608
리스	-9.32642
▁있다는	-9.32671
▁오히려	-9.32686
▁흠	-9.32726
▁죽음	-9.32843
좋다	-9.32909
▁무서운	-9.32976
▁가치	-9.33014
▁아들	-9.33023
▁디	-9.33051
런	-9.33124
무슨	-9.33159
x	-9.33163
▁우연히	-9.33295
▁만드	-9.33349
마저	-9.33376
꼭	-9.33392
▁없네요	-9.33585
시절	-9.33596
▁봤네요	-9.33733
w	-9.33781
폐	-9.3379
가족	-9.33815
▁비슷한	-9.33815
▁억지로	-9.33854
것이다	-9.33918
▁어린	-9.33974
▁예전에	-9.34024
괴	-9.34036
▁까	-9.3405
쪽	-9.34108
▁알았다	-9.34123
▁연출이	-9.34179
로운	-9.34225
▁재밌어	-9.34285
▁티	-9.34293
▁설명	-9.3431
▁살인	-9.34322
으며	-9.34358
노잼	-9.34442
잉	-9.34485
였습니다	-9.34533
▁복	-9.34638
▁바람	-9.34639
감이	-9.34701
E	-9.34819
로서	-9.34838
▁부족한	-9.34891
▁이야기를	-9.3498
났다	-9.35069
▁천재	-9.35073
▁자연	-9.35107
인이	-9.35158
클	-9.35172
▁것이다	-9.35241
▁받	-9.35307
▁신기	-9.35319
▁요소	-9.35324
겁	-9.3538
됬	-9.35395
▁뭔지	-9.35462
▁아무것도	-9.35539
▁않아	-9.35545
하긴	-9.35601
▁완성도	-9.35684
만으로도	-9.35696
하세요	-9.35711
스타	-9.35755
징	-9.35795
자가	-9.35956
▁감사	-9.3603
▁메세지	-9.36165
송	-9.36447
▁SF	-9.36505
▁내인생	-9.36602
▁지루하	-9.36609
▁모습이	-9.36653
▁괴	-9.36834
버렸다	-9.36842
사람이	-9.36866
▁분명	-9.36924
▁이후	-9.36952
▁마무리	-9.37034
▁반전이	-9.37079
곳	-9.37084
▁일본영화	-9.37111
애니	-9.37111
................	-9.37113
--	-9.373
인거	-9.37313
▁이런거	-9.37315
였던	-9.37327
▁슬프	-9.37359
▁불편	-9.37455
▁허무	-9.37512
▁온	-9.37526
▁만들지	-9.37562
춘	-9.37856
릭	-9.37861
▁꼬	-9.37875
▁안보	-9.37919
▁인정	-9.37984
▁유머	-9.37988
▁코메디	-9.38066
▁스타일	-9.38068
▁진행	-9.38211
▁전형적인	-9.38241
준다	-9.3842
▁배우가	-9.38536
20	-9.38562
드는	-9.3865
▁처	-9.38751
▁리메이크	-9.38908
▁모르	-9.3892
▁화이팅	-9.38933
▁귀	-9.39021
▁좀비	-9.39038
영화다	-9.39042
강추	-9.39071
안되	-9.39156
▁평점에	-9.39162
*	-9.39182
▁권	-9.39253
▁작품성	-9.39327
▁알았는데	-9.39381
▁금	-9.39407
▁대단	-9.3949
▁꺼	-9.39523
최악	-9.396
웃음	-9.39608
누	-9.39727
에겐	-9.39729
▁킬링타임용	-9.39787
▁으	-9.39795
▁성장	-9.39854
▁노출	-9.3991
▁만들었다	-9.3994
▁여운	-9.40055
▁여성	-9.40273
▁않을	-9.40313
▁관심	-9.40378
마음	-9.40433
자들	-9.40436
▁상영	-9.40471
방송	-9.40511
더군요	-9.40541
▁액션영화	-9.40582
▁믿	-9.40635
씩	-9.40665
점짜리	-9.40666
낮	-9.40694
추천	-9.40726
보면서	-9.40764
▁액션도	-9.40833
팔	-9.40862
재밌게	-9.40881
▁안나오	-9.40993
▁좋았습니다	-9.41074
▁처음으로	-9.41115
▁지루하지	-9.41184
▁돈이	-9.41237
▁이리	-9.41312
▁행동	-9.41417
▁프랑스	-9.4153
던가	-9.41697
▁맥	-9.41703
량	-9.41704
▁흥미	-9.41887
▁서로	-9.42002
▁질질	-9.42031
▁ost	-9.42063
▁사랑이	-9.42109
▁재미있고	-9.42113
애들	-9.42158
고싶다	-9.42166
네여	-9.42221
▁어렸을때	-9.4229
▁중반	-9.42305
▁골	-9.42348
▁늘	-9.42377
▁청춘	-9.42454
▁전작	-9.42472
▁급	-9.42518
▁경찰	-9.42577
▁우울	-9.42644
엄	-9.42646
▁맞는	-9.42655
▁대단하다	-9.427
확	-9.42791
▁나쁜	-9.42873
▁이러	-9.42888
수도	-9.42934
▁듯한	-9.42949
▁완벽	-9.42959
▁황	-9.42978
놓은	-9.43151
&	-9.43172
▁영화였습니다	-9.43203
▁특유의	-9.4322
▁앞으로	-9.43237
▁흐	-9.43248
▁받아	-9.433
멋	-9.43301
보게	-9.43306
이렇게	-9.43324
▁똑같	-9.43325
다른	-9.43372
했을	-9.43388
이제	-9.43393
친구	-9.43397
▁수가	-9.4348
하자	-9.43489
벨	-9.43535
던지	-9.43537
▁왜이리	-9.4356
▁재미없고	-9.43579
▁유치하고	-9.4359
▁캐	-9.43597
▁이어	-9.43705
이면	-9.43839
득	-9.4385
점준다	-9.43869
▁깊은	-9.439
▁장면은	-9.43921
▁티비	-9.43931
▁현재	-9.43958
▁형	-9.44032
▁같네요	-9.44172
▁촬영	-9.44181
해주는	-9.44224
▁관계	-9.44363
▁인상	-9.44582
▁법	-9.44643
▁ᄒᄒᄒ	-9.4474
▁등장	-9.44803
▁본다	-9.44806
▁좋았고	-9.44819
▁속편	-9.44872
▁아오	-9.44986
벽	-9.44989
▁독	-9.45039
육	-9.45088
눈물	-9.45135
????	-9.45207
▁비추	-9.45222
▁아이들이	-9.45231
분이	-9.45373
▁리얼	-9.45387
▁알아	-9.45394
▁실제	-9.45414
려는	-9.45427
▁무엇보다	-9.45436
▁아까워	-9.45507
▁보여준	-9.45576
▁시청률	-9.45613
▁빠져	-9.45714
텐데	-9.45746
수록	-9.45891
▁영웅	-9.45953
알바	-9.45953
▁삶	-9.45967
▁게임	-9.45992
졸	-9.46063
있네	-9.46259
▁지금도	-9.46268
▁해야	-9.46269
▁명작이다	-9.46276
있게	-9.46299
일이	-9.46349
▁빠	-9.46441
▁자유	-9.46448
깔	-9.46491
▁그렇고	-9.46506
풀	-9.46512
골	-9.46556
코미디	-9.46562
작가	-9.46587
빨	-9.46684
한다는	-9.46691
것은	-9.46716
봤어요	-9.46748
▁저도	-9.46801
앙	-9.46841
▁이런걸	-9.46843
궁	-9.46865
땅	-9.46869
▁중간	-9.46881
ᄏᄏᄏᄏᄏᄏᄏᄏᄏᄏᄏᄏᄏᄏᄏᄏ	-9.46924
▁아니지만	-9.46937
▁재밌었어요	-9.46946
▁않았다	-9.46949
기억	-9.46965
다운	-9.47064
셔	-9.47098
롭	-9.47168
▁먼저	-9.47283
주고	-9.47385
▁그랬	-9.47409
▁최악이다	-9.47421
스런	-9.47433
▁화려한	-9.47484
유치	-9.47485
▁표정	-9.47486
▁지난	-9.4751
▁시간낭비	-9.47578
몽	-9.4761
있는데	-9.47612
▁스토리에	-9.4764
버리고	-9.47664
랄	-9.47716
▁프로	-9.47723
모습	-9.4783
되지	-9.47843
▁잘만든	-9.47888
▁그것	-9.47913
착	-9.47995
▁얼	-9.48009
▁싫어	-9.48023
▁C	-9.48069
▁아닐까	-9.48114
암	-9.48137
픈	-9.48226
ᅲᅲᅲ	-9.48302
▁보고나서	-9.4838
▁전체적으로	-9.48406
▁또한	-9.48745
▁모습을	-9.48798
▁철	-9.48934
엿	-9.48958
▁전달	-9.49009
됐	-9.49018
찰	-9.49072
십	-9.49188
▁성인	-9.49252
▁마음을	-9.49283
▁졸라	-9.4931
봣	-9.49451
▁송	-9.49539
가지	-9.49549
시간이	-9.49634
받	-9.49656
특히	-9.49734
▁나에게	-9.49834
감독이	-9.49862
▁몰	-9.49923
▁깊이	-9.49928
▁엉성	-9.49968
좋았	-9.50029
▁확	-9.50056
▁홍	-9.50082
▁평론가	-9.50145
영환	-9.50179
▁영화중에	-9.50209
S	-9.50212
ᄌ	-9.50317
▁통해	-9.50362
▁성공	-9.50415
▁생각한다	-9.50433
▁부분이	-9.50436
▁짜증나	-9.50485
쾌	-9.50568
와서	-9.50594
놓	-9.50596
거임	-9.50645
▁그래	-9.50649
▁삶을	-9.50668
;;;;	-9.50693
싱	-9.50706
▁왠지	-9.50723
▁로맨틱	-9.50731
▁키	-9.50826
▁사건	-9.50951
럽	-9.50979
▁병	-9.51006
▁떠나	-9.51007
만화	-9.51015
언니	-9.51023
항	-9.51096
▁중에	-9.51113
▁너무나도	-9.51162
%	-9.51268
▁왜이렇게	-9.51276
▁나만	-9.51325
A	-9.51387
율	-9.51427
▁싫	-9.51467
▁영화에서	-9.515
▁귀여운	-9.51507
였어요	-9.51515
v	-9.51522
▁어찌	-9.51544
없어	-9.51544
~^^	-9.51594
▁좋았음	-9.51635
▁됐	-9.51655
▁s	-9.51684
▁하면	-9.51712
원작	-9.51722
쇼	-9.51798
한건	-9.51886
떡	-9.51888
컨	-9.51889
오글	-9.51925
▁같습니다	-9.51995
드리	-9.52135
▁정치	-9.5217
,,,"	-9.52183
줘야	-9.52203
C	-9.52204
지않는	-9.52204
▁누	-9.52208
▁밀	-9.52222
▁보고싶	-9.5225
보세요	-9.52295
▁않음	-9.52317
▁그런데	-9.52324
▁자신의	-9.52426
▁상상력	-9.5245
▁근	-9.52515
인생	-9.52537
▁진부한	-9.52561
찌	-9.52574
▁잔인하	-9.52594
▁미래	-9.52596
▁겁나	-9.5271
으면서	-9.52768
스터	-9.52853
페	-9.52854
200	-9.52876
▁잘봤습니다	-9.52883
▁클	-9.5296
둘	-9.53019
G	-9.53069
거같다	-9.53071
▁트	-9.53106
or	-9.53131
▁관람	-9.53193
▁자신	-9.53349
▁빠지	-9.53369
충	-9.53399
▁느껴지는	-9.53399
▁허접한	-9.53436
총	-9.53441
▁이야기가	-9.53502
나게	-9.53722
일뿐	-9.5378
▁답	-9.53795
북	-9.53834
했어	-9.53854
▁그녀	-9.53864
영화중	-9.53902
▁신선	-9.53907
▁광	-9.53926
에서는	-9.54044
▁각	-9.54094
만들어	-9.54135
▁이젠	-9.54155
높	-9.54179
엉	-9.54199
▁있었던	-9.54241
▁못하고	-9.54348
짜리	-9.54354
▁밑에	-9.54381
▁남주	-9.54443
생활	-9.54478
▁하는데	-9.54554
▁어린이	-9.54572
한듯	-9.54581
든다	-9.546
때마다	-9.54608
널	-9.54694
▁그림	-9.54715
▁좋았는데	-9.548
▁주인공들	-9.54806
▁이쁘	-9.54837
많은	-9.54891
▁범죄	-9.54963
▁보이	-9.54997
▁친	-9.55041
▁낭비	-9.5505
T	-9.55078
▁전기세	-9.5511
갔	-9.55316
▁제작비	-9.55326
▁취향	-9.55334
▁마치	-9.55351
들고	-9.55454
▁미소	-9.55456
L	-9.55518
제목	-9.55519
▁해주는	-9.5554
▁확실히	-9.55551
보이	-9.55556
▁명작이	-9.55588
홍	-9.55615
내는	-9.55662
쩔	-9.55689
욱	-9.55766
면서도	-9.55827
▁낚	-9.55864
▁갑	-9.55926
평점이	-9.55932
▁범인	-9.55968
킬	-9.55997
먹는	-9.56053
▁유쾌한	-9.56131
▁감사합니다	-9.56286
▁답답	-9.56335
▁멋	-9.56355
▁훨	-9.56359
었으면	-9.56391
▁다소	-9.56428
▁지금봐도	-9.56487
▁한편	-9.565
했는지	-9.56507
▁드라마를	-9.56567
아주	-9.56567
▁매력적인	-9.56579
들아	-9.56597
▁해준	-9.56624
▁일상	-9.56689
▁슬프다	-9.56753
▁한계	-9.56763
폭	-9.56766
▁여자가	-9.56778
▁후반	-9.56779
시고	-9.56826
▁몰랐	-9.56853
▁기분이	-9.56871
▁보이는	-9.56896
▁눈을	-9.56963
▁가능	-9.56996
한다면	-9.57022
필요	-9.57083
▁황당	-9.5712
걸로	-9.57158
ᄂ	-9.57161
겠네	-9.57192
쩌	-9.57254
▁군대	-9.57274
▁언	-9.57463
▁아름답다	-9.57536
압	-9.57585
▁프로그램	-9.57585
지않은	-9.57586
렉	-9.57593
▁느낀	-9.57599
▁감탄	-9.57644
▁특	-9.57645
▁모르겠	-9.57668
▁아닌데	-9.57675
▁어색한	-9.57708
▁미안	-9.57715
B	-9.57743
▁고민	-9.57745
▁카메라	-9.57756
▁심심	-9.57793
▁니	-9.57948
▁눈이	-9.57958
▁스케일	-9.58013
▁아니면	-9.5803
▁싶어	-9.581
▁든다	-9.58173
▁보지마세요	-9.58186
▁동화	-9.58216
줌	-9.58286
▁이런게	-9.58367
▁여전히	-9.58466
▁돋	-9.58556
▁캐릭터들	-9.58614
▁별로다	-9.58632
▁액션이	-9.5864
~"	-9.58686
▁이영화가	-9.587
밑	-9.58768
내요	-9.58774
▁처음이다	-9.58788
(?)	-9.58861
일본	-9.58885
▁벌	-9.58944
만으로	-9.58963
▁놓	-9.58973
취	-9.59028
랬	-9.5906
▁예쁜	-9.59293
▁여자들	-9.59326
▁국	-9.59354
옥	-9.59399
있어	-9.59438
▁세상에	-9.59545
따위	-9.59737
나온	-9.59745
▁나를	-9.59748
▁현실성	-9.59875
봤음	-9.599
▁사이	-9.59922
▁스토리와	-9.59958
▁애들이	-9.59984
000	-9.6001
▁아름답고	-9.60024
잔잔	-9.60163
▁어이없는	-9.60171
시는	-9.60192
▁OST	-9.60448
쁘	-9.60468
더만	-9.60489
▁대충	-9.60549
드라	-9.60647
그러	-9.60672
▁아놔	-9.60688
니깐	-9.60695
▁-_-	-9.60723
▁드는	-9.60741
재미없다	-9.60771
▁갖	-9.60834
케이	-9.60871
▁소재를	-9.60879
굴	-9.60987
▁씨	-9.60987
▁ᄏᄏᄏᄏᄏ	-9.60991
것들	-9.61022
아깝	-9.61055
▁생각나	-9.61057
인것	-9.61133
▁소름	-9.61156
번째	-9.61225
르는	-9.61282
지마	-9.61338
▁죽는	-9.6139
▁단순	-9.61402
▁긴	-9.61547
▁되었	-9.61646
er	-9.61656
▁제작진	-9.61656
▁커	-9.61697
▁감동적이고	-9.61707
▁젤	-9.6171
▁풀어	-9.6172
ᅲᅲᅲᅲ	-9.61753
었습니다	-9.61788
▁식상	-9.61827
받고	-9.61859
코드	-9.61867
릿	-9.6187
킨	-9.61902
▁보고싶다	-9.61952
전쟁	-9.62009
▁역대	-9.62032
▁매력이	-9.62039
▁같음	-9.62068
버려	-9.62099
▁잼없	-9.62205
깨	-9.62218
되서	-9.62251
시킨	-9.62289
▁떨어지는	-9.6232
▁cg	-9.62338
하는지	-9.6234
▁나오고	-9.62366
람	-9.62406
▁ᄉᄇ	-9.62467
진심	-9.62496
▁팔	-9.62506
현실	-9.62529
▁화가	-9.62549
▁있나	-9.62574
▁끌	-9.62651
이며	-9.62678
▁리뷰	-9.6276
돼	-9.62851
늘	-9.62893
잃	-9.62948
▁내용을	-9.62969
▁사극	-9.62972
▁나가	-9.63013
▁결	-9.63091
협	-9.63137
▁좋았	-9.63197
새끼	-9.63218
▁찍은	-9.63309
▁사람을	-9.6338
▁저예산	-9.63389
세계	-9.63424
▁돌려	-9.63453
▁마라	-9.63468
인의	-9.63486
an	-9.63488
▁그들의	-9.63492
▁하루	-9.63562
▁15	-9.63597
쓴	-9.63601
프로	-9.63743
▁이유가	-9.63775
▁민	-9.63782
에서도	-9.63795
▁전편	-9.63797
ᄒᄒᄒ	-9.63872
▁용서	-9.63895
▁식	-9.63925
▁아저씨	-9.63961
는건지	-9.63967
▁굳이	-9.64048
▁끝나고	-9.64058
딸	-9.64065
ᄅ	-9.64065
▁싫다	-9.64082
둥	-9.64089
▁보았	-9.64148
▁멀	-9.64177
▁붙	-9.64243
▁호러	-9.64299
까진	-9.64404
영상	-9.64457
죄	-9.64515
▁틀	-9.64522
▁꼴	-9.64526
뿌	-9.64537
캐릭터	-9.64559
▁중요한	-9.64589
▁이하	-9.64648
대사	-9.64656
▁스토리를	-9.64738
▁뒷	-9.64794
▁웃겨	-9.64795
ᄍᄍ	-9.64833
▁입니다	-9.64891
▁딴	-9.64907
나와	-9.64959
홀	-9.64979
▁슬픔	-9.64988
▁몰입감	-9.65027
▁종교	-9.65029
▁과연	-9.65069
▁괴물	-9.65083
머리	-9.6513
▁독립영화	-9.65133
▁임	-9.65167
할듯	-9.65179
▁초반에	-9.6523
막장	-9.65233
혼	-9.65245
하다니	-9.65281
▁연기력이	-9.65311
▁재미있음	-9.65323
▁취	-9.6533
▁짜증나는	-9.65397
▁중간중간	-9.65416
▁순수한	-9.65431
▁했지만	-9.6544
덤	-9.6544
▁받았	-9.6547
▁조폭	-9.65492
무섭	-9.65553
쳤	-9.65604
탕	-9.65624
줬	-9.65682
영화의	-9.65691
▁나서	-9.65729
▁시선	-9.65749
▁그럭저럭	-9.65895
▁있다면	-9.65913
웠다	-9.65944
▁독특한	-9.65949
▁심리	-9.66138
▁회	-9.66198
▁흘러	-9.6629
폰	-9.66352
▁시도	-9.66387
▁남는다	-9.66397
끌	-9.66411
먹고	-9.66679
▁기본	-9.66744
▁기대를	-9.66842
▁살짝	-9.66845
▁그런가	-9.66913
▁빛	-9.66925
▁능력	-9.66984
▁재밌었	-9.66988
엄마	-9.67001
하는것	-9.67029
▁역시나	-9.67039
하려는	-9.67063
▁분들	-9.67069
▁가진	-9.67072
ᄃ	-9.67089
하라	-9.67133
나고	-9.67171
▁볼거리	-9.67177
▁현대	-9.67209
▁필요한	-9.67222
▁드라마가	-9.67266
슬퍼	-9.6732
▁재미를	-9.67345
▁판	-9.67368
▁연애	-9.67403
▁포장	-9.6745
력이	-9.67481
▁넘어	-9.67494
▁용	-9.67555
겟다	-9.67583
함과	-9.67583
나올	-9.67619
왔다	-9.67645
되네요	-9.67653
▁표	-9.67733
▁유쾌	-9.67755
▁평범한	-9.67775
▁사는	-9.67775
첨	-9.67827
▁사랑하는	-9.67851
시키는	-9.68068
▁과정	-9.68073
▁생각합니다	-9.68098
P	-9.68186
▁역할	-9.68201
▁글쎄	-9.68204
▁찍어	-9.68212
▁영화이다	-9.68236
짜증	-9.6825
▁무섭	-9.68332
▁루	-9.68348
▁좋을	-9.6842
빙	-9.68454
▁그의	-9.68464
지마라	-9.68477
▁평생	-9.68487
▁끝난	-9.68602
!!"	-9.6864
▁안되고	-9.6865
▁섹시	-9.6867
▁적당	-9.68681
따라	-9.68693
▁영화관	-9.68693
숨	-9.68704
▁춤	-9.68861
▁나중에	-9.68863
▁다르	-9.68946
▁몇번	-9.68981
▁어이가	-9.69039
힐	-9.69135
ᄆ	-9.69135
급영화	-9.69254
▁소재는	-9.69304
내용이	-9.69329
▁저렇게	-9.69332
이유	-9.69336
▁봤었는데	-9.69368
표현	-9.69384
▁올라	-9.69393
공포	-9.69397
랜	-9.69425
갑니다	-9.69436
N	-9.69454
▁ᄃᄃ	-9.69459
▁신선한	-9.695
▁해주	-9.69523
재밌다	-9.69526
▁고전	-9.69526
▁보기엔	-9.69582
쏘	-9.69603
낼	-9.69607
▁연기에	-9.69617
스럽	-9.69664
▁맨	-9.69694
▁이것	-9.69729
▁A	-9.69735
▁만들어진	-9.6977
▁ᅮ	-9.69778
▁희망	-9.69869
하면서도	-9.69902
기엔	-9.69926
없네	-9.6994
순간	-9.69979
얘기	-9.7
웃기	-9.70018
▁가서	-9.70045
▁출	-9.7006
▁소름돋	-9.70086
▁재밌었는데	-9.70251
었지만	-9.70277
▁짠	-9.703
센	-9.70313
▁볼만함	-9.70351
▁볼때마다	-9.70365
▁보는게	-9.70382
것만	-9.70399
▁나왔으면	-9.70421
▁죄	-9.7043
한게	-9.70518
▁참신	-9.70554
농	-9.70557
▁낫	-9.7057
재밌어요	-9.70574
▁귀엽고	-9.70593
▁예전	-9.70611
▁개판	-9.70617
▁설레	-9.70762
▁티비에서	-9.70822
▁없지만	-9.70832
▁의심	-9.70836
잼있	-9.70912
▁전에	-9.70953
▁행	-9.70983
▁다행	-9.70992
▁반성	-9.71004
닝	-9.71036
▁압권	-9.71037
째	-9.71152
▁고생	-9.71193
하려고	-9.71207
▁재밌습니다	-9.71251
봐요	-9.7134
내용도	-9.7135
씨가	-9.71363
온다	-9.71386
▁남기	-9.71391
▁잼있게	-9.71593
▁공감이	-9.71623
▁빼	-9.71638
▁풍	-9.7164
가지고	-9.71667
▁무지	-9.71673
▁여러	-9.71675
▁추천합니다	-9.7169
▁풀	-9.71704
▁재밌었음	-9.71715
▁아는	-9.71783
감을	-9.71797
괜찮	-9.71842
▁아깝	-9.71882
우리	-9.71941
▁드러	-9.71977
개봉	-9.71983
▁안됨	-9.71993
j	-9.72
값	-9.72
▁죽어	-9.72012
▁표절	-9.72025
▁무섭다	-9.72027
▁시원	-9.72068
▁소녀	-9.72123
있음	-9.72199
찾	-9.72218
▁알바들	-9.72257
▁밥	-9.72278
가슴	-9.72283
▁봤다가	-9.72338
누나	-9.7239
▁접	-9.72404
on	-9.72429
▁자막	-9.72621
▁보시길	-9.72644
한국	-9.72678
하셨	-9.72755
▁벗	-9.72766
▁진심으로	-9.72848
▁흐름	-9.72895
▁메시지	-9.72929
틈	-9.72973
▁칼	-9.73011
▁가끔	-9.73022
▁연기와	-9.73142
▁주인공의	-9.73174
▁안타깝	-9.73229
▁그렇다	-9.73252
▁동물	-9.73256
냥	-9.7339
▁되었다	-9.73396
▁우정	-9.73408
롱	-9.73426
짧	-9.73427
▁긴장	-9.7343
빡	-9.73435
▁덜	-9.73529
속에서	-9.73547
▁필요없는	-9.73553
▁많다	-9.73587
▁먼	-9.73658
져서	-9.73668
▁필	-9.73676
▁있지	-9.73744
▁몰입이	-9.73761
말고	-9.73879
이해	-9.73916
▁멋지다	-9.73955
팀	-9.73956
▁폭	-9.7397
▁볼수록	-9.74063
▁분노	-9.74069
▁직	-9.74131
▁액션은	-9.74138
▁올리	-9.74144
그렇	-9.74172
▁<	-9.74231
▁이건뭐	-9.74256
었고	-9.74343
▁재미없네	-9.74358
▁"1	-9.74366
M	-9.74368
더라구요	-9.74385
▁난다	-9.74391
▁같아	-9.74396
좌	-9.74448
▁음악이	-9.74456
▁몸매	-9.7451
▁포기	-9.74551
▁함	-9.74572
▁있습니다	-9.7458
▁어릴적	-9.74603
▁지루할	-9.74631
년전에	-9.74667
▁킬링타임	-9.74833
웅	-9.74869
▁폭력	-9.74885
▁힐링	-9.74949
▁눈빛	-9.74968
수있	-9.75022
▁죽을	-9.75045
▁팬이	-9.75093
▁안하고	-9.75122
▁사랑과	-9.75122
▁I	-9.75131
관계	-9.7521
▁결과	-9.75276
아님	-9.75345
▁아닌듯	-9.754
르고	-9.75424
균	-9.75428
지않고	-9.75436
▁희생	-9.7546
▁묘사	-9.75463
▁쇼	-9.75563
▁되게	-9.75582
세기	-9.75607
명이	-9.75648
으로서	-9.75706
▁십	-9.75845
캐	-9.75853
▁이유는	-9.7588
몰	-9.75891
상을	-9.75895
사회	-9.75946
▁가볍게	-9.75951
갓	-9.75951
스릴러	-9.75964
▁소재로	-9.75988
▁불쾌	-9.75992
▁더이상	-9.75995
▁썩	-9.76041
▁난해	-9.76061
."""	-9.76079
세상	-9.76106
▁좋습니다	-9.7611
▁오버	-9.7611
▁홍보	-9.76126
자는	-9.7615
▁실패	-9.76164
▁인기	-9.76222
▁봤으면	-9.76234
▁그려	-9.76245
▁말할	-9.76376
팅	-9.76388
in	-9.76397
탁	-9.76415
▁재밌네	-9.76463
▁빈	-9.76549
안에	-9.76549
▁남아	-9.76582
▁채	-9.76596
▁크게	-9.76634
▁말로	-9.76684
▁봐야할	-9.76696
▁만든다	-9.7673
나와서	-9.76805
점주는	-9.76884
멘	-9.76963
▁해피엔딩	-9.77004
▁게이	-9.77032
오브	-9.77043
▁열심히	-9.77155
▁빠져들	-9.77272
혁	-9.7743
인가요	-9.77452
솔	-9.77472
뢰	-9.77474
▁느끼는	-9.77482
▁북한	-9.77532
해준	-9.77535
받은	-9.77551
하시는	-9.7757
▁달리	-9.77577
▁영화보고	-9.77658
▁보여	-9.77692
▁이정도면	-9.77696
학생	-9.77824
▁뮤지컬	-9.77839
▁추억의	-9.77856
▁빌	-9.77895
▁사랑에	-9.77961
요즘	-9.77965
▁12	-9.77976
멸	-9.77987
▁엄	-9.77989
▁쉽게	-9.77996
접	-9.78011
솔직히	-9.78052
▁빨	-9.78055
믿	-9.78145
▁정서	-9.78157
연기도	-9.7825
▁감동과	-9.78338
▁영화지만	-9.78392
것같	-9.78413
▁슬프고	-9.78435
▁생각나는	-9.78441
생겼	-9.78446
▁나머지	-9.7851
면에서	-9.78518
빵	-9.7859
보지	-9.786
시다	-9.78615
▁어쩔	-9.78621
▁아마	-9.78642
▁그걸	-9.7866
▁재밋게	-9.78714
▁짓	-9.78717
▁퀄리티	-9.78806
▁그린	-9.78808
▁했던	-9.78819
▁좋았던	-9.78852
딩	-9.78884
▁아프	-9.78973
R	-9.7902
했나	-9.79022
▁합	-9.7914
▁홍콩	-9.79174
▁알려	-9.79265
▁언제나	-9.7935
용으로	-9.7947
했으나	-9.79483
같고	-9.79518
▁디즈니	-9.79541
숭	-9.79541
털	-9.79541
기분	-9.79542
▁섹스	-9.79546
보시	-9.79555
▁악역	-9.79605
▁지루해서	-9.79609
▁동생	-9.79613
▁볼만하다	-9.79629
떠	-9.79673
정신	-9.79717
▁제목이	-9.79745
▁재밋다	-9.79757
▁어렸을	-9.7977
에대한	-9.79803
V	-9.79833
▁가지	-9.79834
▁라는	-9.79895
▁되지	-9.79933
▁잊혀지지	-9.79999
턴	-9.80014
놨	-9.80097
▁필요없다	-9.80144
시작	-9.80147
있었	-9.8019
▁남녀	-9.80237
▁+	-9.80257
▁뜨	-9.80302
▁높다	-9.80303
▁의문	-9.80425
▁재미있네요	-9.80454
▁곳	-9.80477
배우들의	-9.80547
X	-9.8058
▁연예인	-9.80591
▁돌아가	-9.80632
▁끝나는	-9.80676
볼만	-9.80731
▁못했다	-9.80732
▁영화냐	-9.80768
▁다만	-9.80809
ar	-9.80859
▁무서워	-9.80879
▁허술	-9.80898
▁놈	-9.81044
▁만들고	-9.81079
노래	-9.81117
▁없나	-9.81172
▁악당	-9.81243
점준	-9.81264
▁조잡	-9.81296
▁이쁜	-9.81298
▁시간을	-9.813
젤	-9.81322
할까	-9.81327
▁하게	-9.81328
▁드라마는	-9.81378
하구	-9.81472
▁젊은	-9.81585
사가	-9.81617
연기가	-9.81637
콜	-9.81638
텔	-9.81652
▁싸구려	-9.81652
.......	-9.81728
▁왠	-9.81738
식이	-9.81763
차라리	-9.81881
자체가	-9.81887
초반	-9.81937
▁표현한	-9.81975
▁문화	-9.8201
껄	-9.82063
▁여기서	-9.82094
▁매력적이	-9.82102
스의	-9.82125
컷	-9.82187
▁비주얼	-9.82187
▁이연걸	-9.82188
▁믿을	-9.8221
봣는데	-9.82267
▁그다지	-9.82292
티비	-9.82386
흥	-9.82504
편의	-9.82662
▁끊	-9.82745
▁뛰어난	-9.82759
▁w	-9.82792
▁죄다	-9.82864
로써	-9.82947
답답	-9.83016
▁처음엔	-9.83021
냈	-9.83055
▁만큼	-9.83125
시간에	-9.83151
활	-9.83175
▁열정	-9.83189
영화라고	-9.83236
했네	-9.83313
▁스타	-9.83322
했다는	-9.83407
▁차이	-9.8346
▁발전	-9.83465
되면	-9.83474
▁느꼈	-9.83556
▁지구	-9.83577
▁광고	-9.83653
버리는	-9.83757
즐	-9.83758
▁유치함	-9.83768
▁어제	-9.8379
▁뜻	-9.83799
▁벌써	-9.83824
▁통쾌	-9.83824
소설	-9.83876
ᄏᄏᄏᄏᄏ	-9.83907
나옴	-9.83955
▁재미있었다	-9.83961
▁남을	-9.83974
▁40	-9.83997
▁삶의	-9.84092
스러움	-9.84099
넣	-9.84127
▁짱짱	-9.84142
▁죽여	-9.84201
▁반전도	-9.84203
보는내내	-9.84212
▁어른	-9.84311
▁청	-9.84313
스러웠	-9.84348
삭	-9.84355
웨	-9.84376
억지	-9.84385
하는건	-9.84417
계속	-9.84435
▁쓰래기	-9.84492
▁많았	-9.84513
▁늘어	-9.84551
▁않게	-9.84562
I	-9.84702
▁소재가	-9.84722
였지만	-9.84774
▁전설	-9.84795
택	-9.84828
▁둘다	-9.84839
들만	-9.84847
▁보았다	-9.84873
밝	-9.84904
므	-9.84904
어지는	-9.84926
▁핵	-9.84932
▁평이	-9.84943
▁몰라도	-9.8497
장난	-9.84998
사람은	-9.85004
▁들었	-9.85025
"""""""	-9.85045
봤던	-9.85071
따뜻	-9.85099
ᄒᄒᄒᄒ	-9.85123
▁몇번을	-9.85153
한것	-9.8519
▁무시	-9.85197
무비	-9.85314
▁끌어	-9.85326
험	-9.85328
중의	-9.85384
▁퇴	-9.85387
뛰	-9.85442
▁헐리우드	-9.85457
▁드럽게	-9.85457
▁불구하고	-9.85458
▁엉성한	-9.85485
▁놀라	-9.8549
▁다큐멘터리	-9.85548
▁다시한번	-9.85602
ᄃᄃ	-9.8567
하려	-9.85728
거라	-9.85827
▁최근	-9.85834
아까움	-9.85855
▁배우의	-9.85879
▁엉망	-9.85891
▁아깝지	-9.8594
▁봣	-9.85969
중에서	-9.85969
흑	-9.85981
스럽고	-9.86
▁어려운	-9.86013
올리	-9.86121
▁되고	-9.86141
▁볼만하	-9.86143
구성	-9.86154
▁S	-9.86159
모든	-9.86197
▁아쉬움	-9.86232
▁사기	-9.86443
▁연출도	-9.86452
▁좋아서	-9.86508
포인트	-9.86577
▁인간들	-9.86601
▁맘	-9.86649
좋고	-9.86659
편보다	-9.86693
부족	-9.86772
▁우리가	-9.86776
시길	-9.86905
▁우주	-9.86962
▁d	-9.87006
거면	-9.87063
▁페	-9.8711
▁청소년	-9.87133
꾸	-9.87194
▁찡	-9.87249
라지만	-9.87268
님의	-9.87277
줄이야	-9.87292
▁보아	-9.87385
▁떠나서	-9.87424
할수있	-9.87437
점수	-9.87505
거같	-9.87521
점주	-9.87526
ᅡ	-9.87698
벤	-9.87698
영화로	-9.87711
▁찍었	-9.87743
촌	-9.8778
▁이제야	-9.87813
▁장면에서	-9.87855
▁크리스	-9.87893
▁한국인	-9.87932
▁말을	-9.87973
▁웃기고	-9.87995
왔는데	-9.88073
잠	-9.88101
▁현실적인	-9.88102
▁올해	-9.88117
해주세요	-9.88152
▁헤	-9.88194
▁가득	-9.88215
]	-9.88266
대는	-9.88287
▁넣	-9.88334
사는	-9.88341
▁생애	-9.88348
▁연결	-9.88352
▁좋았을	-9.88375
▁낮아서	-9.88377
▁있어요	-9.88405
집니다	-9.88416
안되는	-9.88417
았던	-9.88447
더라면	-9.88461
더라도	-9.88462
▁국민	-9.88472
▁거지	-9.88616
▁할말	-9.88711
섭	-9.88728
▁보고싶은	-9.88751
▁있게	-9.88774
▁푹	-9.8881
떼	-9.88837
▁음악도	-9.88855
▁결말도	-9.88902
▁잔인한	-9.88903
어울리	-9.88906
▁말하는	-9.88922
▁시각	-9.88973
배경	-9.88976
▁괜찮았	-9.89013
▁단연	-9.89016
▁"""""""	-9.89112
스타일	-9.8916
하지도	-9.89189
▁환상	-9.89207
▁시걸	-9.8924
▁유치하다	-9.89273
is	-9.89279
▁많아	-9.89332
▁있으면	-9.89333
▁쓸	-9.89346
▁비슷	-9.89381
▁산으로	-9.89387
ᄇ	-9.894
엠	-9.89409
편을	-9.89457
▁자극	-9.89465
re	-9.89473
▁고통	-9.89526
▁마세요	-9.89527
▁그렇다고	-9.89599
한다고	-9.89614
▁아직까지	-9.89641
▁인생을	-9.89727
▁킬링타임용으로	-9.89766
워서	-9.89891
▁순수	-9.89898
▁좀더	-9.89916
헌	-9.89956
몰입	-9.89966
끈	-9.89975
▁지금은	-9.89979
▁아름다움	-9.8999
▁로그인	-9.8999
▁쵝오	-9.89991
▁찌	-9.89999
▁시청	-9.90005
▁T	-9.90019
겁니다	-9.90024
▁에휴	-9.90041
장면이	-9.90082
으론	-9.90148
얻	-9.90162
▁월	-9.90188
사이	-9.90213
▁살아있	-9.90223
~~~~~~~	-9.90346
빼고	-9.90348
▁생각없이	-9.90403
11	-9.90536
▁그럼	-9.90571
설정	-9.90647
▁점수를	-9.90692
▁남편	-9.90697
▁대표	-9.90748
▁왜케	-9.90755
젠	-9.90768
♥♥	-9.90806
고싶은	-9.90808
▁탄탄한	-9.90814
▁사람의	-9.90851
뭔	-9.90886
▁뻔하고	-9.90888
▁나옴	-9.9089
▁단순한	-9.90902
▁내려	-9.90933
▁빌려	-9.90939
▁c	-9.90941
푸	-9.91099
▁높아	-9.91105
톱	-9.91156
님들	-9.91158
▁상처	-9.91169
긴한데	-9.91176
▁어머니	-9.91206
까지는	-9.91213
▁베스트	-9.91229
▁시시	-9.91251
▁나오지	-9.91325
그래	-9.91327
▁질리지	-9.91329
내고	-9.91366
▁진정	-9.91367
놔	-9.91403
▁나왔다	-9.91487
▁외국	-9.91552
이걸	-9.9158
▁전문가	-9.91602
특	-9.91639
겹	-9.91642
하겠	-9.91645
▁이따위	-9.91687
헤	-9.91694
▁조연	-9.917
꿀	-9.91722
▁영화에요	-9.91743
재밌음	-9.91791
▁투자	-9.91826
▁생생	-9.91842
시즌	-9.91865
▁사랑스러운	-9.91876
▁외모	-9.91908
▁옛날에	-9.91909
다는게	-9.91913
▁에로	-9.91925
▁미드	-9.92061
▁결말은	-9.92103
▁운	-9.9211
▁싶네요	-9.92141
뭔가	-9.92157
▁느와르	-9.92167
▁잼나	-9.92221
으로써	-9.92263
▁솔직	-9.92267
잤	-9.92309
▁끄	-9.92393
▁방금	-9.92394
친다	-9.92418
▁모든게	-9.92461
▁퍼	-9.92496
그리	-9.92501
▁죽이	-9.92525
▁때문	-9.92548
▁멍청한	-9.92577
하신	-9.92592
▁폴	-9.92652
연기력	-9.92661
▁허세	-9.92668
▁못해	-9.92682
기위해	-9.92732
▁꽝	-9.92761
▁달라	-9.92848
제발	-9.92871
▁밋밋	-9.92931
`	-9.92932
▁바뀌	-9.92938
▁무엇을	-9.93027
▁생각하는	-9.93046
해진	-9.93048
같음	-9.93165
▁울었	-9.93176
▁연속	-9.93177
센스	-9.93238
▁줌	-9.93282
▁누구나	-9.93385
▁못한다	-9.93396
미치	-9.93408
▁울고	-9.93413
▁눈에	-9.9343
▁친구들	-9.93483
했네요	-9.93515
버림	-9.93522
▁귀엽	-9.93526
▁있어야	-9.9353
▁없는데	-9.93542
주기	-9.93562
▁이후로	-9.93573
만드는	-9.93661
▁묻	-9.93682
▁현실적이	-9.93692
갔다	-9.93776
▁피해자	-9.93878
는것도	-9.93898
야할	-9.93995
감독의	-9.94023
▁심장	-9.94072
▁생각하고	-9.94091
▁있네요	-9.94128
▁즐겁게	-9.94141
........	-9.94167
99	-9.94194
▁않나	-9.9421
▁탈	-9.94228
▁느낌을	-9.94229
라이언	-9.94276
았습니다	-9.94303
봅니다	-9.94319
나오네	-9.9433
마리	-9.94348
▁이쁘고	-9.94467
▁하는지	-9.94476
▁출연진	-9.94509
하더라	-9.94527
▁힘들다	-9.9456
▁나오면	-9.94707
▁의리	-9.94708
▁개인	-9.94712
▁가져	-9.94728
흐	-9.94733
▁에피소드	-9.94739
례	-9.94739
계의	-9.94763
▁집에서	-9.94769
보자	-9.94785
▁명품	-9.94785
▁대부분	-9.94797
▁건지	-9.94861
▁인물들	-9.94877
지말고	-9.94894
나가는	-9.94898
▁눈물을	-9.94918
▁인생의	-9.94921
▁쥐	-9.94934
돌아	-9.94944
▁다운	-9.94947
OOO	-9.95035
셔서	-9.95039
▁망한	-9.95098
짜증나	-9.95141
나온다	-9.95201
으려	-9.95222
머니	-9.95258
▁인간이	-9.95308
▁않지만	-9.9532
▁더불어	-9.95355
▁맨날	-9.95397
▁좋아할	-9.95403
▁발견	-9.9541
▁아나	-9.9542
▁기다리	-9.95422
기로	-9.95422
겠어요	-9.95453
▁무엇	-9.95514
겨울	-9.95626
▁못할	-9.95675
오늘	-9.95733
▁이거보고	-9.9574
▁이해할	-9.95843
▁유명	-9.95848
▁와닿	-9.95869
ᄃᄃᄃ	-9.95907
▁시대를	-9.95911
▁시트콤	-9.95962
줍니다	-9.95967
▁잔잔하고	-9.95975
▁시사회	-9.96011
▁반복	-9.96061
▁의미를	-9.96064
잔인	-9.96173
지도않고	-9.96196
▁작가가	-9.96255
▁할말이	-9.96255
려면	-9.9626
▁무서웠	-9.96275
▁극치	-9.963
^^"	-9.96374
▁싶지	-9.96375
봤지만	-9.96389
▁부르	-9.96433
라는게	-9.96451
끝까지	-9.96453
▁;;	-9.96529
영화임	-9.96547
▁ᅲᅲᅲ	-9.96557
▁견자단	-9.96579
▁러닝타임	-9.96579
칙	-9.96579
혈	-9.96579
▁뭉클	-9.96579
▁무언가	-9.96581
느라	-9.96755
해야지	-9.96803
▁남겨	-9.96829
▁보러	-9.97115
형님	-9.97126
▁보지마	-9.97128
▁외계인	-9.97201
▁스스로	-9.97204
▁헤어	-9.97205
▁뽑	-9.97207
▁평범	-9.97211
▁잔	-9.97295
형제	-9.97333
▁주변	-9.97347
▁더러운	-9.9736
자체	-9.97384
▁억지스럽	-9.97392
밥	-9.97466
▁볼게	-9.97485
했었	-9.97598
▁울었다	-9.97603
이라서	-9.97642
식으로	-9.9767
적은	-9.97674
ᅲᅮ	-9.97702
됐다	-9.97796
껴	-9.97802
K	-9.97826
▁개연성이	-9.97826
▁경험	-9.97845
엔딩	-9.9787
▁지켜	-9.97907
▁보니까	-9.9791
뻔한	-9.98028
웃겼	-9.98082
▁필요없	-9.98228
▁70	-9.98239
수없는	-9.98334
텐	-9.98353
▁헐리웃	-9.98454
퀴	-9.98454
▁본다면	-9.98467
▁진부	-9.98471
ing	-9.98474
▁떨어지	-9.98521
▁코난	-9.98582
▁앤	-9.98585
겠음	-9.98614
▁안타깝다	-9.98621
▁아이돌	-9.98622
▁쫌	-9.98647
▁예쁘	-9.98661
매력	-9.98666
▁대화	-9.98677
씬은	-9.98685
▁알수	-9.98713
▁ᄋᄋ	-9.98796
아무	-9.98886
▁그럴	-9.98905
▁봣는데	-9.98919
▁딱히	-9.9893
공감	-9.99008
님이	-9.99012
▁최고입니다	-9.99025
▁빼고	-9.99033
▁야한	-9.99051
▁발로	-9.9906
만들었	-9.99076
깜	-9.99086
▁어처구니	-9.99087
뽕	-9.99087
아니다	-9.9909
▁the	-9.99097
▁안돼	-9.99113
앞	-9.99174
▁다룬	-9.99175
▁타임	-9.99225
▁기대안하고	-9.99247
문화	-9.99253
▁무척	-9.99273
줄알았	-9.99316
▁아쉽네요	-9.99399
▁국내	-9.99404
▁기대했는데	-9.99404
▁지루하게	-9.99423
▁덕분에	-9.99443
▁무비	-9.99546
끝나	-9.99613
▁펑펑	-9.99649
몬	-9.99724
떄	-9.99724
닉	-9.99724
렁	-9.99724
칸	-9.99724
했을까	-9.99748
▁정말로	-9.99751
▁들어가	-9.99768
이런영화	-9.99773
▁갈등	-9.99817
▁하면서	-9.9983
▁한참	-9.99862
▁이미지	-9.9995
▁전체	-9.99953
▁이런영화가	-9.99958
▁보인다	-9.99985
▁몰입해서	-9.9999
▁작은	-10.0002
▁18	-10.0004
빌	-10.0008
▁영화였어요	-10.0012
▁쩐다	-10.0014
좋아요	-10.0019
룡	-10.0022
▁잊지	-10.0022
▁독특	-10.0024
▁f	-10.0024
나왔	-10.0024
▁하네요	-10.0027
뽀	-10.0037
▁바꿔	-10.0037
틴	-10.0038
▁한심	-10.004
▁하나하나	-10.0041
▁찌질	-10.0045
▁착한	-10.0045
좋아하는	-10.0045
수있는	-10.0046
▁양심	-10.0049
▁조합	-10.005
▁신선하고	-10.0051
문제	-10.0051
있어서	-10.0054
▁굿굿	-10.0056
몇	-10.006
▁작품이다	-10.0064
야한다	-10.0065
감독님	-10.0069
▁공부	-10.0072
▁인상적이	-10.0074
쥐	-10.008
평가	-10.0082
새끼들	-10.0083
샤	-10.0083
▁웃음이	-10.0084
이었음	-10.0085
▁재미없어요	-10.009
슬프	-10.0095
아쉽	-10.0101
▁기독교	-10.0101
▁싸이코	-10.0101
▁따뜻해지는	-10.0104
▁푸	-10.0107
▁같아서	-10.0109
▁그렇	-10.0115
러운	-10.0116
▁게다가	-10.0121
당한	-10.0122
▁어렵	-10.0126
▁살고	-10.0129
▁귀여워	-10.013
▁모르겠고	-10.0133
▁니들	-10.0136
▁멍청	-10.0141
▁비극	-10.0148
▁미모	-10.0153
▁자식	-10.0155
!!!!!	-10.016
▁위대한	-10.0166
▁직접	-10.0167
▁힘들었	-10.017
▁노답	-10.0172
받는	-10.0173
▁어휴	-10.0177
▁사랑이야기	-10.0181
▁한데	-10.0182
로드	-10.0183
쳤다	-10.0183
▁박수를	-10.0191
▁단지	-10.0195
없어서	-10.0196
마지막에	-10.0198
▁안보고	-10.0202
▁혼	-10.0203
▁장면들	-10.021
돋	-10.0217
어떻게	-10.0219
▁옛	-10.023
ᅵ	-10.0231
땡	-10.0231
▁짝퉁	-10.0231
▁의외로	-10.0231
▁논	-10.0234
▁흔한	-10.0237
쉽	-10.024
그래서	-10.024
▁최강	-10.0242
▁김기덕	-10.0245
▁대사가	-10.0246
▁빼고는	-10.0255
▁이해하기	-10.0259
▁끝이	-10.0266
렇	-10.0272
씨의	-10.0275
▁영화인듯	-10.0277
있나	-10.0281
하지마라	-10.0282
▁부모	-10.029
▁영어	-10.0296
H	-10.0297
층	-10.0297
탓	-10.0297
▁관객들	-10.0302
▁봤더니	-10.0305
▁재미있었어요	-10.0305
즘	-10.0306
▁긴장감도	-10.0312
▁남자가	-10.0318
▁꽃	-10.0323
▁누군가	-10.0325
똑	-10.0327
였고	-10.0337
▁불쌍	-10.0349
▁올려	-10.0351
▁채널	-10.0352
후반	-10.0353
잇는	-10.0356
▁말하고	-10.0358
춰	-10.0361
▁이쁘다	-10.0363
히어로	-10.0364
▁진리	-10.0365
▁즐기	-10.0367
▁방법	-10.0368
간의	-10.0376
▁재밌을	-10.0384
▁배우들도	-10.0398
▁학교	-10.04
스럽게	-10.0403
00	-10.0407
▁이기	-10.0412
▁충	-10.0413
▁그렇지	-10.0424
삶	-10.0426
힘	-10.0428
되었	-10.0429
섹	-10.0429
뮤	-10.043
▁슬펐	-10.043
어린	-10.043
▁좋지만	-10.0434
▁50	-10.0438
왔습니다	-10.044
바닥	-10.0441
,,,,	-10.0441
▁오랜만	-10.0446
▁가면	-10.0455
깝	-10.046
명의	-10.0463
▁부족하다	-10.0464
▁아쉬	-10.0465
▁보길	-10.0467
자나	-10.0482
▁자살	-10.0483
▁아줌마	-10.0492
흡	-10.0495
▁더럽	-10.0495
멍	-10.0496
잡고	-10.0496
뉴	-10.0497
▁마이너스	-10.0497
▁즐거운	-10.0497
▁카리스마	-10.0497
▁레전드	-10.0497
▁오바	-10.0499
▁속에	-10.0505
▁끼	-10.051
하기엔	-10.0511
끼리	-10.0514
▁영국	-10.0515
▁샤	-10.0515
겼	-10.0517
▁우와	-10.0518
it	-10.052
▁넘치는	-10.0522
▁사랑은	-10.0523
▁음악과	-10.0523
▁유쾌하고	-10.0529
▁동안	-10.054
▁받을	-10.0544
▁알겠	-10.0548
▁보내	-10.055
▁낳	-10.0551
셈	-10.0552
뜻	-10.0554
▁감정을	-10.0557
꿀잼	-10.056
▁실제로	-10.0563
낀	-10.0564
꼴	-10.0566
▁감동적	-10.0567
▁행복한	-10.0573
▁뛰어	-10.0577
상황	-10.0582
빼곤	-10.0583
▁아역	-10.059
▁한마디	-10.0598
▁암튼	-10.0604
▁여행	-10.0607
▁검	-10.0608
▁비판	-10.0608
▁슈퍼	-10.0631
▁:	-10.0632
컬	-10.0632
넹	-10.0633
큰	-10.0637
▁전투	-10.0642
▁죽은	-10.0642
F	-10.0645
▁꾸	-10.0645
▁진지	-10.0645
▁인도	-10.0649
▁웃김	-10.0652
▁좋았지만	-10.0653
▁모르겠지만	-10.0655
▁작품을	-10.0655
▁멋있다	-10.0659
▁없었던	-10.0662
▁들었다	-10.067
하던데	-10.0674
▁뭐라	-10.0681
▁아침	-10.0691
▁꿈을	-10.0694
▁먹고	-10.0699
▁보자	-10.0701
칭	-10.0701
쥬	-10.0701
▁초등학생	-10.0701
룩	-10.0701
긋	-10.0701
▁마이클	-10.0701
▁로봇	-10.0702
냄새	-10.0702
▁좋았으나	-10.0703
▁느껴진다	-10.0704
사건	-10.0705
▁완전히	-10.0705
겠네요	-10.0707
▁좋아하는데	-10.0708
쓸	-10.0708
이였다	-10.0709
▁달달	-10.0709
▁한번쯤	-10.071
▁사랑의	-10.0711
더빙	-10.0715
▁007	-10.0719
▁기술	-10.0719
으니까	-10.0724
냈다	-10.0728
▁특이	-10.0728
얘	-10.0729
기까지	-10.0732
▁지루했다	-10.074
▁않을까	-10.0742
요소	-10.0745
▁아픔	-10.0748
꼽	-10.0759
부작	-10.0761
▁본인	-10.0762
▁시청자	-10.0768
둔	-10.077
핑	-10.077
▁중에서	-10.0772
▁비현실적	-10.0774
▁짜증난다	-10.0775
▁없지	-10.0777
빛	-10.0778
만큼은	-10.0781
▁속에서	-10.0781
▁개성	-10.0783
▁쓰레기다	-10.0789
내내	-10.0792
▁살려	-10.0796
0%	-10.0797
속의	-10.0809
//	-10.081
▁쓰레기같은	-10.0815
▁조선	-10.0826
동생	-10.0826
딴	-10.0828
주연	-10.0833
▁연기자들	-10.0833
보여	-10.0837
▁보며	-10.0837
스러워	-10.0837
▁반개도	-10.084
▁철학	-10.084
▁일어나	-10.0846
▁재미있었	-10.0846
▁용기	-10.0849
얼굴	-10.0851
▁남자의	-10.0851
모양	-10.0852
논	-10.0852
스포	-10.0858
▁볼수있	-10.0868
▁이유를	-10.0871
까요	-10.0872
사람들이	-10.0873
th	-10.0877
▁보여준다	-10.0878
▁뒤로	-10.0887
▁씬	-10.0892
출연	-10.0893
해진다	-10.0893
때부터	-10.0894
년만에	-10.0898
쭉	-10.091
W	-10.091
▁고양이	-10.091
▁보고나면	-10.0911
▁챙겨	-10.0916
▁역대급	-10.0921
▁봤을때	-10.0922
▁관한	-10.0925
▁충격적	-10.0926
▁주말	-10.0931
▁학교에서	-10.0933
켜	-10.0936
▁많고	-10.0937
쟁	-10.0937
▁안맞	-10.0945
▁와우	-10.0946
▁좋게	-10.0958
▁ᄋ	-10.0962
▁제로	-10.0969
주고싶	-10.0972
▁재밌다고	-10.0978
▁개뿔	-10.0983
▁좋겠어요	-10.0986
▁무협	-10.0989
▁손발이	-10.0999
할만한	-10.0999
밤	-10.0999
자를	-10.1
편도	-10.1002
▁좋아해서	-10.1005
쟁이	-10.1006
하기만	-10.1019
▁나쁘지	-10.102
인물	-10.102
▁똑같은	-10.102
▁잊	-10.1032
줬다	-10.1034
▁모를	-10.1038
▁한명	-10.1046
럭	-10.1051
▁포르노	-10.1051
▁주성치	-10.1051
▁흥미로운	-10.1053
▁시리즈중	-10.1055
▁썼	-10.1057
▁레알	-10.1057
▁빠진	-10.1059
▁일품	-10.1065
▁따로	-10.1071
▁야동	-10.1073
모두	-10.1088
▁대해서	-10.1088
▁힘이	-10.1092
▁홍콩영화	-10.1094
상태	-10.1101
▁커플	-10.1111
겠습니다	-10.1113
인건	-10.1118
튀	-10.1119
▁블랙	-10.1122
깁	-10.1122
폼	-10.1122
▁이제서야	-10.1122
▁잠깐	-10.1123
▁할머니	-10.1129
▁풍경	-10.1129
▁필름	-10.1131
▁교육	-10.1133
분은	-10.1135
스키	-10.1136
럴	-10.1137
똥	-10.1138
▁왠만하면	-10.1143
때까지	-10.1148
공포영화	-10.1151
▁있던	-10.116
▁이럴	-10.1161
▁보여줬	-10.1168
되나	-10.1168
▁잼있다	-10.1177
▁아이가	-10.1179
었어	-10.1186
▁하는거	-10.119
옹	-10.1193
▁아름다웠	-10.1194
▁크리스마스	-10.1194
버릴	-10.1199
▁할까	-10.12
▁안나	-10.1209
살아	-10.121
▁연기력도	-10.1218
도아니고	-10.1239
▁있었지만	-10.1245
▁얼마	-10.1249
▁밤	-10.1249
점정도	-10.1251
▁우리의	-10.1252
30	-10.1256
▁보긴	-10.126
▁모르게	-10.1261
절대	-10.1266
어디	-10.1266
롤	-10.1267
라스	-10.1267
했다고	-10.1268
▁줬	-10.1273
하기도	-10.1276
▁대중	-10.1278
▁개막장	-10.1281
하고싶은	-10.1289
았음	-10.1291
맞추	-10.1293
▁해석	-10.1295
<	-10.1298
헐	-10.1299
허접	-10.1301
콩	-10.1305
▁느낄수	-10.1309
▁괜찮다	-10.1318
▁최대	-10.1321
ie	-10.1323
▁소름이	-10.1325
기법	-10.1326
보이는	-10.1326
▁옷	-10.1326
나오고	-10.1328
최악의	-10.1339
빅	-10.134
▁지나치게	-10.134
▁깔끔	-10.134
▁겨우	-10.1343
있냐	-10.1352
▁당연	-10.1354
았는데	-10.1361
감정	-10.1362
닌	-10.1374
거리는	-10.1378
▁악마	-10.1378
90	-10.1379
▁이래	-10.138
없었	-10.138
였어	-10.1383
역사	-10.1392
▁긴장감이	-10.1398
▁잭	-10.14
사람들은	-10.1402
줘서	-10.1404
▁주기	-10.1405
▁자주	-10.1411
롯	-10.1413
었을	-10.1416
▁국가	-10.1419
▁쪽	-10.1423
▁인해	-10.1428
빨리	-10.1431
▁잊을	-10.1434
보구	-10.1438
읽	-10.1439
제작	-10.1439
▁이용	-10.1445
▁없어요	-10.1447
▁답답한	-10.1451
▁케이블	-10.1467
▁받는	-10.1467
하길	-10.1468
▁둘이	-10.1479
▁찬	-10.1485
▁어린시절	-10.1489
▁바꾸	-10.1491
▁간다	-10.1498
▁유명한	-10.1499
▁망치	-10.15
▁사람들의	-10.1501
▁보았습니다	-10.1506
▁떨어진다	-10.1513
뭐야	-10.1518
▁섬	-10.152
▁재미있어	-10.1524
포스터	-10.1529
▁가슴에	-10.1529
본영화	-10.1534
우스	-10.1538
▁어릴	-10.1538
점줌	-10.1543
▁무섭지도	-10.155
▁왜이래	-10.1559
붕	-10.1561
했었는데	-10.1562
하기에	-10.1564
▁내면	-10.1566
▁됨	-10.1568
주면	-10.1572
▁삶에	-10.1583
▁설마	-10.1584
▁아픈	-10.1593
▁갔	-10.1596
▁훈훈	-10.1597
것같아요	-10.1608
:)	-10.161
▁13	-10.161
▁재미잇	-10.1612
몸	-10.1613
▁평론가들	-10.1614
갈수록	-10.1617
▁보지말	-10.1631
▁평점보고	-10.1634
▁보기에	-10.1635
▁디테일	-10.1637
▁스트레스	-10.1637
▁나쁘	-10.1642
▁쩝	-10.1652
타임	-10.1652
▁짝이	-10.1653
80	-10.1653
▁오락	-10.1654
▁애기	-10.1655
점이다	-10.1656
▁여태	-10.1657
▁결정	-10.1657
엇다	-10.1658
▁드립니다	-10.1661
▁형님	-10.1662
▁이런영화를	-10.1664
▁재미없게	-10.1665
멜	-10.1678
▁작품은	-10.168
▁개봉한	-10.1681
꽃	-10.1683
장르	-10.1685
붙	-10.1687
관객	-10.1687
▁졸리	-10.1688
▁영화보는	-10.1693
▁불러	-10.1696
년도에	-10.1697
▁가치가	-10.1703
▁웃기지도	-10.1705
▁어른들	-10.1708
략	-10.1712
▁DVD	-10.1713
▁멍	-10.1713
하겠다	-10.1713
▁기다려	-10.1714
▁읽어	-10.1716
아무리	-10.1719
▁알겠는데	-10.1726
~!!!	-10.1727
▁11	-10.1727
신분들	-10.1731
랄까	-10.1735
보니까	-10.1741
▁감히	-10.1745
▁싶었	-10.1745
▁형사	-10.1748
▁없습니다	-10.1748
스토리도	-10.1749
치곤	-10.1758
▁재미와	-10.1763
▁높게	-10.1766
드립니다	-10.177
봤네요	-10.1782
쌍	-10.1784
▁관점	-10.1786
▁이때	-10.1787
랫	-10.1789
▁시간가는줄	-10.1789
▁아까울	-10.1789
▁색다른	-10.1789
극장	-10.1791
거같은데	-10.1791
▁심각	-10.1791
적이다	-10.1791
▁본영화	-10.1792
거같아요	-10.1795
▁하늘	-10.1801
▁자신이	-10.1803
▁성격	-10.1809
▁척	-10.1814
19	-10.1814
▁아예	-10.182
▁콩	-10.1824
▁앞으로도	-10.1825
▁감안	-10.183
기에는	-10.1833
▁지루하기	-10.1836
▁위해서	-10.1837
▁비하면	-10.1837
▁괜찮은데	-10.1841
▁싶은데	-10.1842
▁그거	-10.1847
편에	-10.1849
▁선생님	-10.1852
장애	-10.1856
▁실력	-10.1856
싶다	-10.1856
관람	-10.186
▁훈훈한	-10.186
▁헛	-10.1862
▁생각하면	-10.1863
▁대본	-10.1864
셀	-10.1866
▁안타까운	-10.1866
▁말도안되는	-10.1868
스텝	-10.1868
▁화려하	-10.1876
12	-10.1878
조금	-10.1878
▁못함	-10.1883
♥♥♥	-10.1885
▁해결	-10.1887
싶어서	-10.1887
당시	-10.1888
자신	-10.1888
받아	-10.1888
▁있구나	-10.1888
▁도전	-10.1893
▁모르겠음	-10.1893
▁훌륭하다	-10.1899
건가요	-10.19
고싶어	-10.1902
도대체	-10.1902
▁답답하고	-10.1908
▁전쟁영화	-10.191
받아서	-10.1911
▁생각함	-10.1918
▁뿐이다	-10.1919
▁있는지	-10.1922
것인가	-10.193
▁보여주고	-10.1931
스크	-10.1931
보내	-10.1933
휘	-10.1936
...........	-10.1938
.........	-10.1944
납니다	-10.1945
▁감흥	-10.1946
▁흑인	-10.1947
▁촌스럽	-10.1948
▁탑	-10.1948
제로	-10.1952
▁D	-10.1952
▁있으	-10.1953
▁변태	-10.1955
▁재밌던데	-10.1958
▁심하게	-10.1959
▁조화	-10.1961
▁방영	-10.1962
검	-10.1972
임에도	-10.1973
같지	-10.1976
▁웃기다	-10.1987
러브	-10.1993
봤어	-10.1996
▁개연성도	-10.2005
▁조작	-10.2007
as	-10.2008
자리	-10.2012
낚	-10.2015
▁원작의	-10.202
싼	-10.2022
▁화끈	-10.2025
▁점수가	-10.2026
▁색감	-10.2027
류의	-10.2028
▁진부하고	-10.2029
여주	-10.2029
이었습니다	-10.203
▁캐릭터가	-10.2032
하하하	-10.2032
▁깨닫게	-10.2034
▁그녀의	-10.2047
▁문제가	-10.205
▁빵점	-10.2057
미국	-10.206
좋음	-10.2068
▁몇년	-10.2078
▁이것이	-10.2089
덜	-10.209
▁죽는줄	-10.2092
▁우리는	-10.2094
때문	-10.21
묵	-10.21
뚱	-10.2101
쿵	-10.2101
z	-10.2101
삐	-10.2101
쿨	-10.2101
★	-10.2101
무서움	-10.2102
▁충실	-10.2105
▁무엇인지	-10.2106
▁녹	-10.2107
▁거짓말	-10.2107
하지마	-10.211
▁ᄏᄏᄏᄏᄏᄏ	-10.2122
▁못하다	-10.2123
▁욕망	-10.2123
▁낮아	-10.2141
▁낚시	-10.2141
▁효과	-10.2153
영화인데	-10.2156
브라	-10.216
새롭	-10.2163
st	-10.2168
▁장르가	-10.2169
콘	-10.2171
긴장감	-10.2173
었나	-10.2176
▁명작입니다	-10.2177
▁야구	-10.2179
핀	-10.218
▁소름끼치	-10.218
▁예쁘고	-10.2181
▁몇몇	-10.2183
▁최초	-10.2192
▁대단하	-10.2193
^^*	-10.2197
트리	-10.2199
▁멋지	-10.2201
▁볼만했	-10.2202
안됨	-10.2207
▁맹	-10.2209
▁감동적이다	-10.221
▁만들면	-10.2219
▁신경	-10.2222
했더니	-10.2224
▁보통	-10.2224
▁에이	-10.2227
▁전설의	-10.2234
▁한심한	-10.2243
라곤	-10.2243
옴	-10.2246
▁탐	-10.2253
▁연출과	-10.2253
▁깜짝	-10.226
▁테러	-10.2262
▁낮게	-10.2262
▁여러가지	-10.2262
▁영원히	-10.2264
▁낙	-10.2268
▁사진	-10.2269
▁여름	-10.2271
▁잘만들었	-10.2275
혹은	-10.2276
▁잼있어요	-10.2276
▁않네요	-10.2278
▁기자	-10.2281
▁운명	-10.2283
▁정의	-10.2285
▁듣고	-10.229
▁작가님	-10.2291
▁보려고	-10.2292
▁추억이	-10.2301
▁그건	-10.2311
▁한국영화는	-10.2315
개그	-10.2319
▁자신을	-10.232
▁생각할	-10.2324
▁맞아	-10.233
영화입니다	-10.2332
시나리오	-10.2338
측	-10.2338
▁쓰는	-10.2338
지않아	-10.234
▁울컥	-10.2341
▁죽이는	-10.2341
▁소중한	-10.2341
싸움	-10.2346
▁웃고	-10.2351
▁남자주인공	-10.2351
쓰는	-10.2364
후회	-10.2366
아까운	-10.2368
▁살면서	-10.2368
▁결론	-10.2369
▁선동	-10.2372
▁막장드라마	-10.2375
▁정도의	-10.2375
▁인디	-10.2382
▁갖고	-10.2382
▁분들은	-10.2386
▁생각나서	-10.2395
▁뛰어나	-10.2401
▁씹	-10.2408
맥	-10.2409
버전	-10.2412
보여주	-10.2415
▁집에	-10.2416
픽	-10.2418
▁동성애	-10.2422
▁21	-10.2424
▁돼	-10.2425
ᄍ	-10.2432
..........	-10.2434
▁잘하고	-10.2435
▁비밀	-10.2436
▁하나같이	-10.2441
▁빵	-10.2452
▁있었는데	-10.2452
▁미쳤	-10.2452
그만	-10.2455
두고	-10.2456
혼자	-10.2456
나올때	-10.2457
만듬	-10.2458
다니는	-10.2458
▁느꼈다	-10.2461
▁노래도	-10.2461
▁원작이	-10.2465
감동적이	-10.247
▁분위기가	-10.2476
▁방식	-10.248
닐	-10.2488
▁액션씬	-10.2493
렵	-10.2499
▁보지마라	-10.2501
엑	-10.2504
벅	-10.2504
▁아닙니다	-10.2504
곰	-10.2504
▁잔뜩	-10.2504
▁스크린	-10.2504
▁핵노잼	-10.2505
▁어쩜	-10.2508
▁좋겠	-10.2516
▁전율	-10.2518
▁무술	-10.2532
▁묻어	-10.2538
되었다	-10.2539
▁봤었	-10.254
▁편견	-10.254
같네	-10.2541
ᄏᄏᄏᄏᄏᄏᄏᄏ	-10.2555
▁뻔하	-10.2556
볼려고	-10.256
▁공포물	-10.2561
▁세상을	-10.2568
▁북	-10.2578
갱	-10.2586
▁여운을	-10.2587
▁젠장	-10.2587
▁남자들	-10.2594
▁199	-10.2601
▁존경	-10.2603
▁만들다니	-10.2604
게임	-10.2609
▁톰	-10.2612
▁열연	-10.2612
이름	-10.2614
▁비디오로	-10.2615
재미도	-10.2616
댄	-10.2618
▁전개도	-10.262
▁살아가는	-10.2623
틱	-10.2626
▁명화	-10.2629
▁배우를	-10.2638
▁진부하	-10.2639
재미없음	-10.264
▁기준	-10.2641
하진	-10.2646
▁남아있	-10.2646
특별	-10.2649
▁낮다	-10.265
지루함	-10.2652
▁추리	-10.2663
했다면	-10.2665
좋앗	-10.2669
▁아내	-10.2669
▁웬	-10.2669
▁패러디	-10.267
▁싶을	-10.267
▁수준의	-10.267
▁끝났	-10.267
▁후속작	-10.267
▁다양한	-10.267
▁특별한	-10.2675
▁단편	-10.2681
▁이상하게	-10.2687
▁볼때	-10.2688
▁오래된	-10.2688
랜드	-10.269
어이없	-10.2697
▁부모님	-10.2699
▁관객을	-10.2702
▁죽이고	-10.2706
▁당시에	-10.2712
▁엿	-10.2713
▁헬	-10.2714
큐	-10.2715
▁단어	-10.2718
▁제외	-10.2723
▁한국에서	-10.2727
부분이	-10.2731
▁낚였다	-10.2734
긴하지만	-10.274
▁최고였다	-10.2741
▁구성이	-10.2747
듯하다	-10.2749
▁떨	-10.2752
▁끈	-10.2753
쪼	-10.2754
찐	-10.2754
▁소소한	-10.2754
▁바랍니다	-10.2755
▁잔혹	-10.2756
▁집착	-10.2756
▁sf	-10.2757
▁극장가서	-10.2757
▁모두가	-10.2758
른다	-10.2758
▁흥	-10.2758
▁결코	-10.2759
▁억지스러운	-10.2761
▁최고임	-10.2773
▁위로	-10.2775
▁다르다	-10.2775
▁영혼	-10.2775
쳐서	-10.2778
커플	-10.2778
지마세요	-10.278
햇다	-10.2784
!!!!!!	-10.2788
▁본거	-10.2792
▁부실	-10.2792
학년	-10.2793
보임	-10.2807
▁어쩔수	-10.2816
▁풍자	-10.2821
속으로	-10.2823
▁에로영화	-10.2826
ᄏᄏᄏᄏᄏᄏᄏᄏᄏᄏᄏᄏᄏ	-10.2834
찮	-10.2837
놈이	-10.2838
▁특수효과	-10.2839
찔	-10.2839
▁탄생	-10.2839
녕	-10.284
했을때	-10.2845
▁두번째	-10.2849
못해	-10.2853
블루	-10.2855
▁배역	-10.2858
걍	-10.286
어진	-10.2861
없는영화	-10.2861
▁빼면	-10.2863
▁끝날	-10.2863
수밖에	-10.2866
▁탄탄	-10.2867
년작	-10.2867
주제	-10.2873
▁반전은	-10.2876
▁잼나게	-10.2886
▁시청률이	-10.2889
럼	-10.2892
있습니다	-10.2893
해주고	-10.2899
▁돈을	-10.2903
아빠	-10.2905
▁주인공은	-10.291
▁안습	-10.2912
▁돌리	-10.2912
▁몰라	-10.2919
쯔	-10.2924
고등학교	-10.2924
▁감정이입	-10.2926
▁만든영화	-10.2929
▁자체는	-10.2931
▁안봤	-10.2937
▁가슴을	-10.2941
▁본방사수	-10.2942
캐스팅	-10.2949
비디오	-10.2949
였으면	-10.295
아저씨	-10.295
▁재미있습니다	-10.2951
▁책임	-10.2953
기전에	-10.2962
▁출연한	-10.2964
▁옥	-10.2965
▁감정이	-10.2969
▁맡	-10.297
13	-10.2972
▁캬	-10.2982
▁내용인지	-10.2983
▁재미없었다	-10.2988
▁살린	-10.2994
▁뭘까	-10.2999
해야할	-10.3002
▁잊을수	-10.3004
▁그것도	-10.3004
▁영화보면서	-10.3004
렷	-10.301
젖	-10.301
펜	-10.301
▁불쌍하다	-10.301
▁2014	-10.301
▁제임스	-10.301
▁지나도	-10.3016
쓰레기영화	-10.3017
▁첫사랑	-10.3018
했지	-10.3022
▁넌	-10.3022
것같은	-10.3022
같아서	-10.3023
▁연극	-10.3029
▁다루	-10.3033
▁재미도없고	-10.3037
흠	-10.3039
▁변화	-10.3043
▁노래가	-10.3051
▁최근에	-10.3051
▁생각했는데	-10.3057
달아	-10.3059
▁연기자	-10.306
▁막판에	-10.3061
▁거기에	-10.3079
▁소년	-10.3083
즐겁	-10.3093
벼	-10.3097
▁사운드	-10.3097
겠죠	-10.3098
ᄋᄋ	-10.3098
▁어설프고	-10.3099
▁안본	-10.3102
▁모험	-10.3103
▁오글거리	-10.3106
▁만들었는지	-10.311
▁등등	-10.3112
▁싸우는	-10.3112
▁어울리는	-10.3116
▁죽었	-10.3119
추격	-10.3122
점이상	-10.3122
아버지	-10.3127
▁도망	-10.3128
▁참신한	-10.313
.............	-10.313
▁많아서	-10.3131
▁식상한	-10.3132
엄청	-10.3134
▁죽인	-10.3134
해준다	-10.3139
▁아름답	-10.3154
▁봅니다	-10.3158
알아	-10.3165
같은영화	-10.3175
꾼	-10.3182
▁짜임새	-10.3185
퓨	-10.3185
▁아이디어	-10.3185
유덕화	-10.3185
▁별로임	-10.3187
▁데리고	-10.3193
▁담배	-10.3196
▁애들은	-10.3196
▁다섯	-10.3197
▁이래서	-10.3208
점대는	-10.3209
▁만남	-10.321
때매	-10.3212
▁기대이상	-10.3215
▁이런건	-10.322
▁남은	-10.3226
▁짜증나서	-10.3232
있었다	-10.3234
▁신파	-10.3238
▁결말을	-10.324
마냥	-10.3242
졸작	-10.3246
▁주기도	-10.325
공주	-10.3253
보는게	-10.3253
▁길게	-10.3262
▁마지막까지	-10.3262
▁가정	-10.3265
든지	-10.3267
▁확실	-10.3272
밍	-10.3273
▁블록버스터	-10.3273
컴	-10.3273
▁심지어	-10.3275
▁따뜻하고	-10.3275
▁어째	-10.3283
▁신비	-10.3284
방식	-10.3285
▁연기력은	-10.33
▁좀비영화	-10.3302
▁만들기	-10.3304
씬이	-10.331
▁손에	-10.3311
▁괜찮았다	-10.3315
▁없으면	-10.3325
▁만들수	-10.3328
쓰고	-10.3328
ad	-10.3339
극장에서	-10.334
▁보던	-10.3347
있을	-10.3351
▁매일	-10.3356
풋풋	-10.3361
싹	-10.3363
부끄럽	-10.3363
▁아까웠다	-10.3365
▁짧은	-10.3367
▁아무런	-10.3368
ᄏᄏᄏᄏᄏᄏᄏᄏᄏ	-10.337
▁휘	-10.3372
▁강한	-10.3376
▁사상	-10.3377
▁두고	-10.3377
보셈	-10.3379
▁대놓고	-10.3386
본사람	-10.3388
또한	-10.339
▁조절	-10.3395
▁가족영화	-10.3396
▁주제를	-10.3408
꿈	-10.3408
막히	-10.3423
▁정작	-10.3443
▁의미가	-10.3446
닿	-10.3448
젊	-10.345
▁다운받아	-10.3453
윌	-10.3453
▁스티븐	-10.3453
▁새벽에	-10.3453
▁즐겨	-10.3453
▁떨어지고	-10.3453
낮은	-10.3455
▁보다니	-10.3458
나름	-10.346
▁재밌지	-10.3461
스토	-10.3463
지도않	-10.3465
▁아니야	-10.3466
보고싶다	-10.3471
▁생긴	-10.3471
▁많은데	-10.3471
▁좋겠네요	-10.3472
▁봤을까	-10.3472
100	-10.3483
▁아름답게	-10.3485
왓	-10.3486
덕에	-10.3486
▁보기에는	-10.3488
들끼리	-10.3488
bb	-10.3489
라는걸	-10.3489
▁수많은	-10.349
이랄까	-10.3494
적이지	-10.3495
벗	-10.3502
▁돋보이는	-10.3503
▁매력을	-10.3503
분위기	-10.3503
▁엉성하고	-10.3504
▁때려	-10.3509
▁어렵다	-10.3514
▁그자체	-10.3518
▁몰랐다	-10.3523
▁낚였	-10.3523
닮	-10.3529
레스	-10.3533
받았	-10.3533
떨	-10.3536
객	-10.3537
액	-10.3542
뭉	-10.3544
J	-10.3544
▁살다살다	-10.3544
▁유일하게	-10.3544
▁동시에	-10.3544
바라	-10.3545
스럽지	-10.3546
▁프레	-10.3552
▁먼가	-10.3553
▁갔다	-10.3556
▁하나로	-10.3559
▁만든거	-10.3564
아직도	-10.3565
아이들	-10.3566
여행	-10.3567
▁과장	-10.3568
▁재난영화	-10.3568
▁등장인물	-10.3572
▁그만큼	-10.3577
려나	-10.3578
▁가수	-10.3581
▁소장	-10.3593
춤	-10.3597
우리나라	-10.36
잊	-10.3601
추억	-10.3602
▁부분도	-10.3606
▁맞지	-10.3608
맘	-10.3617
톤	-10.3621
앞에서	-10.3623
할것	-10.3623
▁몰입도가	-10.3626
▁충분	-10.3631
▁밀려	-10.3633
▁봤네	-10.3633
▁아닐	-10.3634
▁로버트	-10.3635
았어요	-10.3641
▁부부	-10.3642
▁싸움	-10.3643
▁예능	-10.3652
▁반대	-10.3652
▁동양	-10.3653
▁무료	-10.3659
▁줄수	-10.3661
▁집중해서	-10.3668
먹은	-10.367
▁아래	-10.3673
▁교훈을	-10.3675
▁예쁘다	-10.368
것처럼	-10.368
▁넘게	-10.3681
▁순수함	-10.3684
▁정말이지	-10.3687
▁조카	-10.3688
개인적으로	-10.3694
▁낮네	-10.3698
▁요리	-10.37
잖	-10.3705
▁상대	-10.3716
▁당신은	-10.3717
▁편안	-10.3718
▁느껴지	-10.3719
언제	-10.3722
것만으로도	-10.3726
ᅥ	-10.3728
땀	-10.3728
셋	-10.3728
▁됩니다	-10.3728
깃	-10.3728
탱	-10.3728
▁짜집기	-10.3728
▁교과서	-10.3728
멜로	-10.3734
▁안볼	-10.3736
▁감각	-10.3737
▁어느정도	-10.374
!!!!!!!!!!!!!!!!	-10.3743
▁승리	-10.3745
▁알수있	-10.3746
▁영상과	-10.3747
번은	-10.3747
▁재능	-10.3748
▁여러분	-10.3751
▁무리	-10.3751
▁냉	-10.3756
▁하길래	-10.3761
법한	-10.3765
▁목적	-10.3766
능력	-10.3767
장면은	-10.377
구석	-10.3771
▁괜찮음	-10.3773
▁확인	-10.3787
치고는	-10.38
내용은	-10.3805
♥♥♥♥	-10.3808
하러	-10.3812
옆	-10.3817
거죠	-10.3818
▁뭐하나	-10.3819
아까웠	-10.382
▁내용과	-10.3821
▁러시아	-10.3822
▁아류작	-10.3822
▁삶이	-10.3826
재미있게	-10.3831
▁영향	-10.3832
▁잼잇	-10.3834
▁또다른	-10.3838
아프	-10.3839
▁그저그런	-10.3839
)"	-10.3841
보인다	-10.3841
▁시리즈는	-10.3841
▁꼬마	-10.3844
▁말하고자	-10.3846
버스	-10.3848
▁케이블에서	-10.3848
▁나에겐	-10.3849
▁검색	-10.3849
어색	-10.3852
▁독일	-10.3854
▁마지막장면	-10.3856
좋은영화	-10.3857
▁아쉽지만	-10.3858
▁형편없	-10.386
▁궁금하다	-10.3867
▁신선하	-10.3872
▁생각으로	-10.3875
▁볼수있는	-10.3875
▁많은걸	-10.3879
▁그립다	-10.3881
▁반전을	-10.3881
느껴	-10.3885
목소리	-10.3891
▁어색하고	-10.3892
이었던	-10.3892
평론가	-10.3892
▁F	-10.3898
▁내가본	-10.3901
▁있다니	-10.3901
▁샘	-10.391
웨이	-10.3912
및	-10.3916
U	-10.3916
▁가벼운	-10.3916
뎅	-10.3916
▁즐거웠	-10.3916
▁낮지	-10.3916
40	-10.3917
▁작위적	-10.3919
▁위험	-10.3919
▁할아버지	-10.3922
볼수	-10.3922
▁일반	-10.3924
본영화중	-10.3927
▁로코	-10.3928
▁수입	-10.3929
▁흔들	-10.3932
▁내용전개	-10.3932
▁[	-10.3934
▁소설을	-10.3935
거같음	-10.3935
같았다	-10.3938
하는건지	-10.3952
▁ᄍᄍᄍ	-10.3953
ut	-10.3958
ᄏᄏᄏᄏᄏᄏᄏᄏᄏᄏᄏᄏ	-10.3962
▁인상적	-10.3964
▁적절	-10.3966
▁모든걸	-10.3967
▁답이	-10.3972
▁살리	-10.3973
▁보려	-10.3975
▁역사를	-10.3976
지말자	-10.3985
코믹	-10.3987
멋있	-10.3987
야겠다	-10.399
범죄	-10.3991
낫	-10.3993
오오	-10.3993
▁재미없어서	-10.3995
쩜	-10.4006
딘	-10.4011
앨	-10.4011
▁플롯	-10.4011
▁유일한	-10.4012
▁재미로	-10.4014
▁모른다	-10.4015
있으면	-10.4017
▁놀라운	-10.4018
▁당연히	-10.402
▁뭐니	-10.4021
▁집중이	-10.4026
▁한숨	-10.4038
만드네	-10.4053
▁잘봤어요	-10.4059
간만에	-10.4066
▁못보겠	-10.4073
▁놀랍다	-10.4077
▁재밌어서	-10.4087
▁명장면	-10.4087
앤	-10.4087
찡	-10.4087
뭘	-10.4088
▁배신	-10.4091
차별	-10.4102
.,.,	-10.4102
오래	-10.4105
뷰	-10.4106
빗	-10.4107
▁조니뎁	-10.4107
▁배트맨	-10.4107
▁임팩트	-10.4107
▁착각	-10.4107
▁끔찍	-10.4107
▁제이슨	-10.4108
▁폭풍	-10.4109
사실	-10.4111
▁ᄏᄏᄏᄏᄏᄏᄏ	-10.4119
▁적당히	-10.4122
뻐	-10.4128
▁이딴걸	-10.4133
▁처음에는	-10.4135
▁60	-10.4137
있던	-10.4137
부러	-10.4146
보시길	-10.4146
▁자리	-10.4149
▁욕심	-10.4151
▁선물	-10.4157
▁소재도	-10.4159
▁코미디영화	-10.4168
씀	-10.4168
▁싶어요	-10.417
▁여전	-10.4175
▁후에	-10.4179
▁이상해	-10.4185
▁이해할수	-10.4185
TV	-10.419
될듯	-10.4194
웃김	-10.4197
에대해	-10.4199
▁설득력	-10.4204
▁케릭터	-10.4204
▁장국영	-10.4204
▁영환데	-10.4205
▁떠오르	-10.4206
▁남네요	-10.4209
▁폐지	-10.4211
었네	-10.4214
▁일부러	-10.4215
▁여자주인공	-10.422
전혀	-10.4222
▁이상하고	-10.4232
▁높아서	-10.4242
짱짱	-10.4254
있어요	-10.4255
▁난리	-10.4261
일듯	-10.4263
좋았다	-10.4264
▁따뜻해	-10.4267
▁연인	-10.427
▁클레멘타인	-10.4273
▁안맞는	-10.4279
▁매력적	-10.4284
▁찾아볼	-10.4292
불쌍	-10.4295
▁이해를	-10.4299
펑	-10.4302
▁뱀파이어	-10.4302
▁컴퓨터	-10.4302
템	-10.4302
▁숨겨진	-10.4302
예술	-10.4305
▁여러번	-10.4309
▁상영관	-10.4312
▁거북	-10.4314
▁디워	-10.4317
▁시간아깝다	-10.4322
▁여주가	-10.4325
▁따분	-10.4327
재밌어	-10.4329
▁쓰고	-10.434
▁동심	-10.434
▁틀어	-10.4342
상영	-10.4343
▁아까운영화	-10.4345
▁난잡	-10.4351
▁잼있음	-10.4357
▁공간	-10.4361
▁봤을	-10.4364
▁않아서	-10.4366
못하는	-10.4368
표정	-10.4371
▁불편한	-10.4375
하실	-10.4379
▁유발	-10.4388
▁그당시	-10.439
썼	-10.4393
칼	-10.4394
탑	-10.4396
▁머리가	-10.4397
랍	-10.4398
받을	-10.44
닷	-10.4401
▁익숙	-10.4402
▁내생에	-10.4402
화이팅	-10.4406
▁배경음악	-10.4407
▁끼워	-10.4408
▁삼류영화	-10.4416
▁나름대로	-10.4417
다큐	-10.4418
▁엉망이	-10.4423
▁중독	-10.4426
▁기회	-10.4431
▁보았는데	-10.4432
말아먹	-10.4432
▁포스	-10.4437
시원	-10.4441
려다가	-10.4449
▁짜증만	-10.4451
▁꽤나	-10.4458
자들의	-10.446
▁다시보니	-10.4461
뿐이다	-10.4462
▁보이지	-10.4464
▁매니아	-10.4477
▁감동받	-10.4484
▁망친	-10.4489
갔는데	-10.4494
▁바다	-10.4498
엽	-10.4498
^-^	-10.4501
▁인내심	-10.4501
▁반드시	-10.4502
▁늑대	-10.4502
말이필요없	-10.4502
▁앞뒤	-10.4505
▁유치해	-10.4506
▁관련	-10.4509
▁태어나서	-10.4513
▁판단	-10.4513
▁남았	-10.4513
▁약간의	-10.4518
었네요	-10.4518
맞는	-10.4519
▁짜증남	-10.4521
▁친구가	-10.4525
▁마음으로	-10.4525
보게되	-10.4529
ᅲᅲᅲᅲᅲᅲᅲᅲ	-10.4529
높은	-10.4532
▁아깝고	-10.454
▁엄마가	-10.4544
▁한편의	-10.455
▁짜증이	-10.4552
▁피해	-10.4554
베리	-10.4558
▁어른이	-10.4562
le	-10.4565
es	-10.4565
회사	-10.4577
25	-10.4577
이딴	-10.4578
▁재밋어요	-10.4579
낭	-10.4594
ᅮᅮᅮ	-10.46
멈	-10.4602
▁dvd	-10.4602
▁네티즌	-10.4602
▁인터넷	-10.4602
뭣	-10.4602
숀	-10.4602
▁심형래	-10.4602
랭	-10.4602
선생	-10.4603
▁걱정	-10.4603
▁적어도	-10.461
▁사라지	-10.4611
▁시점	-10.4611
▁여자친구	-10.4614
▁근래	-10.4615
▁멋졌	-10.4616
▁이루	-10.4617
노답	-10.4618
갈때	-10.4618
▁싸우	-10.4619
여운이	-10.4622
▁봐도봐도	-10.4627
▁맛이	-10.4628
빠져	-10.4629
▁놀랍	-10.4635
었을까	-10.4641
하니까	-10.4645
▁기억나는	-10.465
▁넘치	-10.4654
▁우연	-10.4659
▁남긴	-10.4663
▁장난치	-10.4664
▁정상	-10.468
▁수작이다	-10.4689
ᅮᅲ	-10.4692
al	-10.4693
리스트	-10.4693
윈	-10.4694
였나	-10.4696
▁잼있었	-10.4696
슷	-10.4699
▁초딩때	-10.47
오르	-10.4702
겠는데	-10.4703
닫	-10.4703
갠	-10.4704
ᄡ	-10.4704
▁해리포터	-10.4704
▁쓸데없이	-10.4704
▁주윤발	-10.4704
▁제니퍼	-10.4704
▁호기심	-10.4705
▁떨어짐	-10.4705
▁달콤	-10.4705
▁음식	-10.4707
▁탈출	-10.4707
▁봐야하는	-10.4707
▁맞춰	-10.4708
▁웃으면서	-10.4709
▁처절	-10.4711
▁과학	-10.4712
▁그야말로	-10.4717
!!!!!!!!!	-10.4721
▁찾는	-10.4722
결국	-10.4728
ᄏᄏᄏᄏᄏᄏᄏᄏᄏᄏᄏ	-10.4729
행복	-10.4733
않음	-10.4733
▁알겠다	-10.4735
▁그지같	-10.4737
▁실수	-10.4739
기도하고	-10.474
소름	-10.4742
▁진수	-10.4747
▁귀엽다	-10.4749
▁어디에	-10.4752
제대로	-10.4755
▁주제가	-10.4756
▁없었음	-10.4766
▁잠이	-10.4769
▁다르게	-10.4772
늙	-10.4772
▁쩔어	-10.4772
무시	-10.4773
뭐냐	-10.4776
열받	-10.4777
빠진	-10.4784
▁안간다	-10.4785
▁공감할	-10.479
봣다	-10.4791
▁아쉬움이	-10.4791
소녀	-10.4794
me	-10.48
납	-10.4805
눌	-10.4808
▁리얼리티	-10.4808
하군	-10.4809
▁꿈꾸	-10.481
▁이런영화는	-10.4813
느끼	-10.4816
훌륭	-10.4817
오랜만에	-10.4817
▁중학교	-10.4825
▁포스터가	-10.4834
▁흐르는	-10.4844
살인	-10.4848
▁절정	-10.485
▁키스	-10.485
▁책을	-10.4857
▁강렬한	-10.4861
▁본건데	-10.4866
류영화	-10.4877
그렇게	-10.488
▁잡아	-10.4884
▁터미네이터	-10.4889
▁으리	-10.489
▁봤다면	-10.4899
싫어	-10.4901
▁곧	-10.4902
조연	-10.4903
하지말고	-10.4903
할뿐	-10.4907
존나	-10.4912
팍	-10.4912
▁you	-10.4912
▁우려먹	-10.4912
▁잔잔하게	-10.4913
▁상관없	-10.4913
▁뭐하자는	-10.4913
▁실험	-10.4915
아까워	-10.4916
▁잤다	-10.4917
▁극복	-10.492
줄알았는데	-10.4927
▁가득한	-10.4932
▁재미없을	-10.4933
▁소재와	-10.4935
못하고	-10.4935
▁인형	-10.4945
었지	-10.4947
▁궁금해서	-10.4949
▁사랑해	-10.4953
볼수있	-10.4958
▁희망을	-10.4961
재미없어	-10.4961
▁분들이	-10.4967
▁사람들에게	-10.4969
▁웃을	-10.4976
렬	-10.4976
못한	-10.498
▁혹시	-10.4988
보소	-10.4996
여운	-10.4997
▁달려	-10.4997
▁일본인	-10.5007
▁제목만	-10.5016
ᄎ	-10.5017
▁대통령	-10.5017
쫓	-10.5017
▁이끌어	-10.5017
보느니	-10.5018
▁당황	-10.5023
▁재미있을	-10.5024
▁발상	-10.5025
▁말아야	-10.503
▁유럽	-10.503
굳굳	-10.5031
▁좋지	-10.5038
▁울리는	-10.5041
▁서양	-10.5041
그럼	-10.5043
없나	-10.5044
▁하품	-10.5045
▁to	-10.5046
▁어거지	-10.5049
웃겨	-10.505
▁오락영화	-10.5051
▁스토리전개	-10.5053
겐	-10.5055
었는지	-10.5058
▁생각난다	-10.5059
▁아우	-10.5062
▁김치	-10.5064
▁서울	-10.5064
▁없나요	-10.5068
앞으로	-10.507
▁불쌍한	-10.5079
▁주연배우	-10.5084
답게	-10.5086
▁멋지고	-10.5105
▁보게된	-10.5109
씁쓸	-10.5109
▁굉장	-10.5116
▁멋있는	-10.5118
하시길	-10.512
깍	-10.5121
▁할리우드	-10.5123
닼	-10.5123
▁이소룡	-10.5123
▁사투리	-10.5124
▁도무지	-10.5124
▁of	-10.5124
▁없게	-10.5132
습니까	-10.5136
▁이뻐서	-10.514
▁첨엔	-10.5141
->	-10.5146
▁개노잼	-10.5152
빼	-10.517
하거나	-10.5173
▁모르겠네요	-10.5178
잖아요	-10.518
▁나랑	-10.5185
▁읽고	-10.5185
▁철학적	-10.5193
▁찍는	-10.5194
▁호구	-10.5194
▁짜증나고	-10.5198
으려고	-10.5199
▁현실감	-10.5201
▁지겹다	-10.5205
▁아냐	-10.5216
▁중심	-10.5217
랙	-10.5231
릇	-10.5231
맴	-10.5231
▁박중훈	-10.5231
▁오글거려	-10.5231
▁뭥미	-10.5231
▁케빈	-10.5231
갖	-10.5238
▁전체적인	-10.5242
▁저평가	-10.5243
너무너무	-10.5244
▁흘리	-10.5245
▁단순히	-10.5249
▁아이들과	-10.5249
▁괜찮았는데	-10.525
▁오랫만에	-10.5251
▁반담	-10.5253
15	-10.5254
있지만	-10.526
▁혹시나	-10.5263
왔어요	-10.527
였을	-10.5271
있지	-10.5276
▁이루어	-10.5278
보고있어요	-10.5282
▁끌고	-10.5284
▁부정	-10.5285
▁녹아	-10.5286
▁강렬	-10.5287
▁그럴듯	-10.5288
▁허술한	-10.529
▁넣어	-10.5294
▁사랑해요	-10.5296
▁잊고	-10.5299
-_-;	-10.5331
▁저급	-10.5332
발랄	-10.5332
져요	-10.5334
줬으면	-10.5337
그러나	-10.5339
▁듭니다	-10.534
램	-10.534
인상깊었	-10.534
켄	-10.534
닭	-10.534
▁이토록	-10.534
▁박진감	-10.534
▁즐길	-10.534
있네요	-10.5341
▁한개도	-10.5343
해지고	-10.5345
▁빠른	-10.5345
제일	-10.5349
중국	-10.535
▁부럽	-10.5351
▁비슷하	-10.5353
▁적당한	-10.5355
▁잘못된	-10.536
▁무엇인가	-10.5365
▁작품입니다	-10.5365
▁정도면	-10.537
스릴	-10.5371
▁안봐도	-10.5372
보긴	-10.5372
뻔했다	-10.5377
햇는데	-10.5382
▁지겹	-10.5383
찾아	-10.5397
▁액션신	-10.541
▁그동안	-10.5411
편에서	-10.5419
▁전개와	-10.5423
▁촌스러	-10.5428
▁어디가	-10.5429
▁무난	-10.544
~~^^	-10.5443
▁망쳐	-10.5444
꼈	-10.5448
덩	-10.5449
▁왤케	-10.5449
쉴	-10.5449
▁나레이션	-10.5449
▁빨갱이	-10.5449
▁희대의	-10.545
보네요	-10.5455
▁볼만했다	-10.5456
굳	-10.5457
분만에	-10.5457
▁만약	-10.5458
▁폭발	-10.5458
▁파괴	-10.5459
답니다	-10.5461
지루하고	-10.5462
스톤	-10.5467
▁아깝네	-10.5474
▁마니	-10.5475
▁황당한	-10.548
▁쉽지	-10.5481
▁다시보고	-10.5481
▁박수	-10.5482
▁최고봉	-10.5484
▁재밌었던	-10.5485
▁이름을	-10.5485
▁울면서	-10.5489
것보다	-10.5491
겨운	-10.5492
▁찍고	-10.5494
글자	-10.5496
▁거장	-10.5497
en	-10.5499
▁아깝네요	-10.5505
쩐다	-10.5509
▁실감	-10.5511
재미있어요	-10.5516
나쁜	-10.5518
▁다운받	-10.5518
▁갖다	-10.5537
▁않았던	-10.5551
엇는데	-10.556
똘	-10.5561
▁움직이	-10.5561
썸	-10.5561
▁베드신	-10.5561
▁공짜로	-10.5561
▁혐오	-10.5561
▁재미있는데	-10.5562
달라	-10.5564
▁명대사	-10.5566
▁아파	-10.5567
▁각색	-10.5567
▁그림체	-10.5568
발연기	-10.5571
▁보는거	-10.5572
것같은데	-10.5575
▁실망스럽	-10.5576
▁괜찮고	-10.5576
힘들	-10.558
모자	-10.5583
할수있는	-10.5586
구리	-10.5587
분동안	-10.5588
여배우	-10.5596
순위	-10.5597
옛날	-10.5601
▁담은	-10.5602
▁아니잖아	-10.5603
아름다운	-10.5604
▁생기	-10.5606
▁정신병자	-10.5609
효과	-10.5617
▁좋네	-10.5618
무엇	-10.5624
안돼	-10.5626
▁사랑합니다	-10.5628
▁대신	-10.5632
드립	-10.5634
▁세번	-10.5637
하나하나가	-10.5639
▁망했	-10.5639
같아	-10.5655
운동	-10.5655
였지	-10.5664
▁손발	-10.5666
륜	-10.5668
▁응원	-10.5671
셉	-10.5673
랩	-10.5673
▁쓸데없는	-10.5673
껀	-10.5673
읍	-10.5673
Y	-10.5673
▁홍상수	-10.5673
▁스포츠	-10.5673
▁불가능	-10.5673
▁평균	-10.5677
▁개그맨	-10.5678
▁생에	-10.5678
▁축구	-10.568
▁탄탄하고	-10.5702
그저	-10.5715
▁하지원	-10.5715
ve	-10.5716
코메디	-10.5722
로맨스	-10.5723
am	-10.5727
▁뜬금없는	-10.5733
▁빛을	-10.5736
밖	-10.5739
▁실화를	-10.5745
나왓	-10.5745
▁무섭지	-10.5746
▁비중	-10.5754
각본	-10.5757
▁벗어나	-10.5765
▁답답함	-10.5767
▁안본다	-10.5769
셔야	-10.5775
민망	-10.5779
▁불안	-10.5784
▁나오는데	-10.5785
됐는데	-10.5786
▁브루스	-10.5787
▁웰메이드	-10.5787
쩍	-10.5787
▁탁월	-10.5787
▁흑백	-10.5787
▁누군지	-10.5787
▁환경	-10.5788
▁헛웃음	-10.5788
▁귀여움	-10.5788
▁거기다	-10.5793
▁언제봐도	-10.5796
만큼이나	-10.5796
▁믿고보는	-10.5798
▁강력	-10.5804
▁사용	-10.5804
자마자	-10.5807
올라	-10.5808
▁만났	-10.5817
쁜	-10.582
▁만들어주	-10.5833
▁고어	-10.5833
▁생명	-10.5838
폴	-10.584
애니메이션	-10.5841
싶으면	-10.5844
▁상어	-10.585
▁기대없이	-10.5852
▁기대이하	-10.5855
댄스	-10.5858
▁왜곡	-10.586
▁한방	-10.586
▁현실과	-10.5862
▁정신없	-10.5862
500	-10.5863
▁가족들	-10.5864
▁아니었다	-10.5865
보고나서	-10.5869
▁없냐	-10.5871
께요	-10.5883
덴	-10.5901
ᄁ	-10.5901
▁컨셉	-10.5902
짤	-10.5902
▁갠적으로	-10.5902
▁보고싶어	-10.5903
▁풋풋한	-10.5904
▁이도저도	-10.5906
▁빛나는	-10.5907
싫	-10.5908
▁재개봉	-10.5908
맞추기	-10.591
▁만난	-10.5911
▁만들었을까	-10.5913
▁재미있었습니다	-10.5914
▁잘만들었다	-10.5922
▁진지하게	-10.5922
▁담긴	-10.5923
ch	-10.5927
신선	-10.5929
▁마약	-10.5929
▁자극적인	-10.5931
▁영원한	-10.594
▁치유	-10.594
해줄	-10.594
하자면	-10.5951
▁안될	-10.5957
첫	-10.5959
역할	-10.5961
귀엽	-10.5962
▁원조	-10.5965
델	-10.5967
어떤	-10.5968
▁강간	-10.5973
▁못보겠다	-10.5976
ᄏᄏᄏᄏᄏᄏᄏᄏᄏᄏ	-10.5978
▁등장인물들	-10.5983
▁잘한다	-10.5985
스티	-10.5988
▁매미	-10.5993
시간동안	-10.5996
ou	-10.5996
▁대사들	-10.5999
▁싶었다	-10.6
▁진지한	-10.6001
▁지키	-10.6001
여주인공	-10.6006
▁그립	-10.601
놨네	-10.6011
▁벌어	-10.6013
▁밤에	-10.6014
옳	-10.6018
웟	-10.6018
▁이병헌	-10.6018
▁드디어	-10.6018
▁아놀드	-10.6018
▁역겨운	-10.6019
▁민폐	-10.6021
▁잔잔하면서	-10.6023
물론	-10.6025
▁엄청나게	-10.6026
▁담담	-10.6026
스턴	-10.6029
하시고	-10.6032
▁추천하고	-10.6038
▁괜찮아	-10.6038
일단	-10.6042
▁기존	-10.6048
▁유행	-10.6058
▁그것을	-10.6059
ᄋᄋᄋ	-10.6064
외에는	-10.6064
▁최소한	-10.6064
▁사랑한다	-10.6065
▁평화	-10.6073
해져	-10.6075
▁마지막회	-10.6084
월드	-10.6088
▁적절한	-10.6089
▁결론은	-10.61
▁좋을듯	-10.6101
▁어울리지	-10.6108
▁논리	-10.6108
아쉬워요	-10.6111
앉	-10.6128
편집	-10.6128
하고싶다	-10.613
콤	-10.6134
낯	-10.6135
븐	-10.6135
퀄	-10.6135
▁둘째치고	-10.6135
톡	-10.6135
▁소중함을	-10.6135
▁오프닝	-10.6135
▁자동차	-10.6135
▁내생애	-10.6135
▁이해불가	-10.6136
▁하정우	-10.6136
▁정우성	-10.6136
▁다시보기	-10.6136
▁낭만	-10.6138
▁만화책	-10.6143
▁돈내고	-10.6145
미친	-10.6145
까봐	-10.6147
▁믿기지	-10.6147
▁요새	-10.6147
▁여자애	-10.6148
▁보시면	-10.6149
웠던	-10.615
▁돼지	-10.615
▁억지감동	-10.6151
▁흘러가는	-10.6153
▁만들어낸	-10.6153
▁속았다	-10.6153
▁쩌는	-10.6155
아아아	-10.6155
▁따지	-10.616
▁다행이다	-10.6165
▁첨부터	-10.6167
편까지	-10.6169
▁애매	-10.6177
봤으면	-10.6182
▁평소	-10.6184
▁시작부터	-10.6186
섬	-10.6201
CG	-10.6209
▁시작해서	-10.6212
▁기타	-10.6215
바람	-10.6219
당신	-10.6236
귀신	-10.6249
▁않은데	-10.625
뚝	-10.6254
엣	-10.6254
▁짐캐리	-10.6254
▁가까운	-10.6254
▁임창정	-10.6254
덩어리	-10.6255
▁양아치	-10.6255
아름다워	-10.6255
▁초반부	-10.6255
▁역량	-10.6258
▁부탁	-10.6259
▁장난하냐	-10.626
어쩌	-10.6262
▁향수	-10.6263
립니다	-10.6264
▁보기싫	-10.6264
▁2000	-10.6264
▁최소	-10.6267
▁개콘	-10.6268
▁개똥	-10.6269
▁재난	-10.6273
▁무겁	-10.6276
▁100%	-10.6278
▁이뻐	-10.6283
선수	-10.6284
▁재미있었음	-10.6286
▁어디로	-10.6289
처리	-10.6295
▁졸았	-10.6303
▁놓치	-10.6314
특집	-10.6318
▁말투	-10.6318
▁훈훈하	-10.6328
맹	-10.6331
판타지	-10.6332
초딩	-10.6334
광구	-10.6334
▁동네	-10.6337
▁나무	-10.6337
당시엔	-10.6338
▁잠시	-10.6349
없네요	-10.6351
겠어	-10.6354
▁예술영화	-10.636
▁어쩌면	-10.6361
▁몰아	-10.6364
▁소화	-10.6369
▁못했	-10.6373
보고싶어요	-10.6374
푼	-10.6375
뻥	-10.6375
튜	-10.6375
걷	-10.6375
▁깡패	-10.6375
▁전반적으로	-10.6375
▁명복을	-10.6375
▁비호감	-10.6375
▁질질끌	-10.6377
▁괜찮게	-10.6379
▁왠만한	-10.6379
▁돈아까워	-10.638
▁은근히	-10.6381
▁화나	-10.6383
▁벗어	-10.6384
돈주고	-10.64
▁사람이라면	-10.6408
누구	-10.6413
▁내돈	-10.6415
▁절로	-10.6416
▁친구랑	-10.6416
▁만들어서	-10.6418
▁알았네	-10.642
▁무섭고	-10.6426
아니면	-10.6432
애들은	-10.6435
▁위트	-10.6436
곳에서	-10.6436
▁보라고	-10.644
▁정보	-10.6443
작이라	-10.6446
▁이번에	-10.6461
천원	-10.6466
경찰	-10.6471
▁돋보인	-10.648
도좋고	-10.6482
ck	-10.6485
남주	-10.6487
충격	-10.6489
ᅩ	-10.6496
뺏	-10.6497
▁놀랐다	-10.6497
▁명불허전	-10.6497
▁송강호	-10.6497
넬	-10.6497
몫	-10.6497
뻑	-10.6497
▁Good	-10.6497
▁어두운	-10.6497
▁몽환적	-10.6497
。	-10.6497
▁무거운	-10.6497
마누라	-10.6499
▁죄송	-10.6499
▁니콜	-10.6499
였다면	-10.65
▁분량	-10.6502
▁잃은	-10.6503
▁슬픈영화	-10.6511
▁웃었	-10.6512
▁자극적	-10.6512
▁찾아서	-10.6514
▁있기	-10.6516
▁여친	-10.6517
▁드림	-10.6517
50	-10.6518
▁마지막엔	-10.6519
▁빵빵	-10.6521
▁놀란	-10.6521
▁이런류의	-10.6523
▁날아	-10.6526
▁살인마	-10.6527
▁유쾌하게	-10.6528
▁괜찮았음	-10.6529
봤습니다	-10.6536
▁살리지	-10.6542
극히	-10.6543
복수	-10.6561
el	-10.6564
▁반영	-10.6577
▁유치해서	-10.6578
되요	-10.6586
▁허무한	-10.6588
▁책으로	-10.659
▁남성	-10.6599
▁짜증나게	-10.6599
▁나와야	-10.6601
픔	-10.6604
ᅮᅮᅮᅮ	-10.6605
외엔	-10.6605
허무	-10.6607
획	-10.6614
줘야지	-10.6617
▁방해	-10.6619
▁살았	-10.662
캠	-10.662
혔	-10.662
스파이더맨	-10.662
쯧쯧	-10.662
펙트	-10.6623
▁좋았을텐데	-10.6625
▁기획	-10.6625
▁이것보단	-10.6625
▁옆에	-10.6627
▁배경으로	-10.6633
▁생각해보게	-10.6633
▁절망	-10.6634
▁명배우	-10.6634
▁꼭보세요	-10.6637
▁천국	-10.6639
것같아	-10.664
지루하다	-10.6641
▁거품	-10.6643
▁와닿는	-10.6645
▁의사	-10.6648
▁만들려	-10.6651
더군	-10.6652
▁거지같은	-10.6654
유발	-10.6657
▁보았던	-10.666
▁뭐라고	-10.6674
할줄	-10.6678
▁아프다	-10.6682
▁않았지만	-10.6683
▁각자	-10.6686
좋네요	-10.6692
볼까	-10.6694
▁한번더	-10.6698
▁도시	-10.67
▁만들었나	-10.6703
▁불쌍해	-10.6705
▁막판	-10.6708
지루해	-10.671
끝나고	-10.6714
시청률	-10.6716
왠	-10.6716
▁넘어가	-10.6718
좀비	-10.6728
▁명연기	-10.673
▁가히	-10.6735
▁망할	-10.6741
킴	-10.6745
▁흡입력	-10.6745
헉	-10.6745
뭇	-10.6745
쟈	-10.6745
툭	-10.6745
▁아무생각없이	-10.6745
▁첩보	-10.6746
▁향연	-10.6747
▁비행기	-10.6749
▁느껴졌다	-10.675
▁말그대로	-10.6752
▁동영상	-10.6752
▁묘한	-10.6755
▁인류	-10.6756
ne	-10.6761
거에요	-10.6765
▁모욕	-10.6767
▁볼만합니다	-10.6767
▁싶었던	-10.6771
un	-10.6776
▁이만한	-10.6778
대체	-10.6782
▁답답하다	-10.6782
안된다	-10.6786
▁안나온다	-10.6787
▁답답해	-10.679
▁나을듯	-10.6793
느냐	-10.6797
▁인상적인	-10.6797
▁준비	-10.68
거라고	-10.6801
▁포스터만	-10.6806
▁싫어하는	-10.6808
▁알았음	-10.681
맞아	-10.6817
였네요	-10.6818
▁좋아하지만	-10.6819
▁범죄자	-10.6822
▁감동적이네요	-10.6822
▁한국판	-10.6822
▁한시간	-10.6824
▁별하나	-10.6837
70	-10.6843
[	-10.6847
쩝	-10.6847
그나마	-10.6849
선택	-10.6859
▁아담	-10.6865
셧	-10.6872
렐	-10.6872
렴	-10.6872
뱀	-10.6872
욤	-10.6872
렛	-10.6872
뤄	-10.6872
▁화장실	-10.6872
▁애초에	-10.6872
▁감명깊게	-10.6873
▁어설프다	-10.6874
▁예측	-10.6876
점주기도	-10.6877
국민	-10.6877
▁라스트	-10.6881
하지않고	-10.6883
▁빠졌	-10.689
▁떨어져	-10.6892
!!!!!!!!!!!!	-10.6894
▁아련하	-10.6902
것같네요	-10.691
▁모르지만	-10.6919
▁세월이	-10.692
▁순수하고	-10.692
▁산만하고	-10.6921
보려고	-10.6926
▁여인	-10.6934
▁의상	-10.6938
▁백인	-10.6939
▁괜찮네요	-10.694
▁단점	-10.6942
▁정신병	-10.696
▁그렇지만	-10.6974
멀	-10.6975
게만드는	-10.6977
▁맞나	-10.6978
▁뜬금없이	-10.698
네이버	-10.6985
굿굿	-10.6986
쭈	-10.7
ᅢ	-10.7
맑	-10.7
쉐	-10.7
덮	-10.7
랴	-10.7
▁제시카	-10.7
▁하이틴	-10.7
▁스타뎀	-10.7001
▁격투	-10.7001
같아요	-10.7004
▁2012	-10.7004
▁배꼽	-10.7005
▁따름	-10.7007
▁깨알	-10.7009
▁말씀	-10.7011
▁좋겠습니다	-10.7012
▁가족애	-10.7016
재밋엇	-10.7016
▁말하려는	-10.7023
▁처음이네	-10.7028
에비해	-10.703
▁군인	-10.7031
▁조연들	-10.7034
잼씀	-10.7037
아직	-10.7044
멋잇	-10.706
▁장난아니	-10.7068
해놓고	-10.7072
어른	-10.7082
▁맡은	-10.7087
▁사람에게	-10.709
▁신선함	-10.7097
▁불쌍하	-10.7106
실력	-10.7109
▁별로였다	-10.7111
ed	-10.7127
앵	-10.7128
퉁	-10.713
맺	-10.713
▁빕니다	-10.713
핫	-10.713
▁평점조절	-10.713
▁4.44	-10.7132
▁도둑	-10.7133
▁나타나	-10.7133
▁극단적	-10.7135
▁앉아	-10.7139
▁은근	-10.7143
▁암울	-10.7152
▁던져	-10.7153
없구	-10.7158
▁다운받아서	-10.7159
생기고	-10.7164
▁대부	-10.7165
▁있었으면	-10.7167
않는다	-10.717
▁멋지게	-10.7181
▁잃었	-10.719
▁기대하지	-10.7192
싫다	-10.7196
스틱	-10.7197
▁잘생겼	-10.7205
▁멋있었	-10.7208
▁형편없는	-10.7208
긴했지만	-10.7208
▁전화	-10.7218
▁무섭게	-10.722
돌려	-10.7222
지않게	-10.7229
맘에	-10.7229
ᄏᄏᄏᄏᄏᄏ	-10.7237
▁전문	-10.7239
▁선사	-10.7247
▁오글거리는	-10.7249
핵	-10.7253
▁욕먹	-10.7257
하더니	-10.726
됫	-10.7262
▁뒤죽박죽	-10.7262
▁시종일관	-10.7262
▁즐거움	-10.7262
즉	-10.7262
퉤	-10.7262
미스테리	-10.7262
▁나루토	-10.7262
▁박보영	-10.7262
▁칭찬	-10.7262
▁오글오글	-10.7262
▁흥미로웠	-10.7263
▁블랙코미디	-10.7263
▁일부	-10.7267
▁잔인함	-10.7268
▁부족함	-10.7269
▁대학	-10.7269
▁마시길	-10.7277
▁애정	-10.7278
▁한심하다	-10.7286
좋아하는데	-10.7287
망작	-10.7294
▁입장	-10.7298
▁소통	-10.73
▁안보는게	-10.7301
점만점에	-10.7306
저런	-10.7314
▁미녀	-10.732
▁빠져서	-10.7332
스코	-10.7337
아까운영화	-10.7346
중간	-10.7348
▁말인가	-10.735
▁충격적인	-10.7353
엇음	-10.7367
났음	-10.7377
▁기대했	-10.7388
몰라	-10.739
▁깔끔한	-10.7394
▁EBS	-10.7395
▁류승범	-10.7395
곱	-10.7395
듦	-10.7395
홈	-10.7395
▁아마추어	-10.7395
▁배급사	-10.7395
▁닥치고	-10.7395
▁엑소	-10.7395
▁거부감	-10.7396
▁무간도	-10.7396
▁돋보였	-10.7397
▁풀어낸	-10.7399
tv	-10.74
▁장애인	-10.7401
▁이것보다	-10.7401
▁고딩	-10.7402
▁낫겠다	-10.7403
▁상징	-10.7404
이후로	-10.7404
▁중학생	-10.741
▁씁쓸하	-10.741
합시다	-10.7416
▁사랑스럽다	-10.7416
▁않으면	-10.7418
▁거짓	-10.742
▁고문	-10.7426
▁마시	-10.7426
▁입장에서	-10.7427
▁미안하다	-10.7433
좋은데	-10.7449
▁재미없었	-10.7483
거같아	-10.7497
▁기적	-10.7503
중간에	-10.7507
▁그리워	-10.7509
삼류	-10.7509
제국	-10.7513
해줘서	-10.7519
괜	-10.7522
낫다	-10.7526
뜬	-10.7528
쎄	-10.7528
츄	-10.753
얄	-10.753
왈	-10.753
팩	-10.753
▁언젠가	-10.753
▁도데체	-10.753
▁펼쳐	-10.753
▁밝혀	-10.753
▁바탕으로	-10.7531
옵니다	-10.7531
프로그램	-10.7533
▁두시간	-10.7533
▁충분한	-10.7534
▁돌아보게	-10.7537
▁감동적이에요	-10.7537
▁이딴영화	-10.7539
병맛	-10.7541
싶은데	-10.7547
▁로망	-10.7549
▁싶습니다	-10.7563
▁최후	-10.7565
잭슨	-10.7566
▁뻔뻔	-10.7567
▁연기잘하	-10.7579
▁공유	-10.7591
▁넘넘	-10.7595
▁아까워서	-10.76
▁모든것이	-10.7601
▁소장하고	-10.7607
▁행복하게	-10.762
▁프랑스영화	-10.7625
ho	-10.7628
▁흉내	-10.7636
▁잊혀	-10.7644
룬	-10.7648
▁끝나서	-10.7652
▁극중	-10.7653
되길	-10.7659
한국영화	-10.7661
▁연상	-10.7664
꽉	-10.7667
▁디카프리오	-10.7667
쇄	-10.7667
☆	-10.7667
▁워낙	-10.7667
▁쓸쓸	-10.7668
▁쉬운	-10.7668
▁엽기	-10.7668
▁창피	-10.7669
▁스파이	-10.7669
▁전성기	-10.767
ᄀᄀ	-10.7671
▁되돌아	-10.7674
샘	-10.7675
▁로빈	-10.7676
댓글	-10.7677
▁부활	-10.7677
탐	-10.7678
▁먹칠	-10.7679
결혼	-10.7681
▁고독	-10.7683
▁에효	-10.7684
▁아만다	-10.7691
▁알게되	-10.7695
현실적	-10.7696
ost	-10.771
피디	-10.7713
▁재방	-10.7714
▁독특하고	-10.7714
▁학생들	-10.7719
▁역겹다	-10.772
였네	-10.7727
▁구분	-10.7734
▁이거보단	-10.7743
▁뻔하다	-10.7748
줄거리	-10.7749
▁뛰어넘는	-10.7751
잇엇	-10.7753
▁우선	-10.7753
▁멋있어	-10.7757
▁되야	-10.7761
▁보겠다	-10.7762
터짐	-10.7765
진행	-10.7777
▁천사	-10.7785
졌음	-10.7786
스틴	-10.7791
▁소개	-10.78
▁여배우들	-10.7802
뎀	-10.7805
▁킬링	-10.7806
밧	-10.7806
버렸네	-10.7806
▁러브라인	-10.7806
▁스타워즈	-10.7806
띠	-10.7806
룰	-10.7806
▁미스터리	-10.7806
▁ᄌᄂ	-10.7806
▁피아노	-10.7806
잊지못할	-10.7806
▁bad	-10.7808
였구나	-10.781
▁공룡	-10.7812
▁보여줄	-10.782
킬링타임	-10.782
한마디로	-10.7821
얼마나	-10.7821
▁심하다	-10.7838
▁이상하다	-10.7838
전체	-10.7845
▁귀여워요	-10.7845
그런데	-10.785
▁작화	-10.7851
▁귀여웠	-10.7852
▁가시	-10.786
▁언제까지	-10.7861
▁이해못	-10.7881
▁첨이다	-10.7882
꺼야	-10.7886
자꾸	-10.79
잘못	-10.7901
▁낮네요	-10.7907
▁삶과	-10.7908
▁여신	-10.7925
▁하나님	-10.7939
쿡	-10.7947
밉	-10.7947
ᄐ	-10.7947
뚫	-10.7947
포켓몬	-10.7947
▁마찬가지	-10.7947
▁섬뜩	-10.7947
▁총체적	-10.7948
▁킬러	-10.7948
▁느껴지지	-10.7951
실화라	-10.7953
▁새삼	-10.7954
▁직업	-10.7954
낭비	-10.7964
▁얻어	-10.7965
개연성	-10.7968
분들께	-10.7968
▁흥분	-10.7969
분짜리	-10.7971
▁세상에서	-10.7972
▁울었어요	-10.7975
▁지옥	-10.7977
달라고	-10.7978
▁재미있었는데	-10.7983
ic	-10.7987
se	-10.7992
▁역사상	-10.7998
짱짱맨	-10.801
▁짜증났	-10.801
레드	-10.8017
▁있으나	-10.8018
▁비교해	-10.802
▁외국인	-10.8021
공부	-10.8026
주었다	-10.8028
▁다시금	-10.8037
▁같았	-10.8038
으러	-10.804
▁팬들	-10.8044
비추	-10.8056
두번	-10.8065
시킬	-10.8065
봐야겠다	-10.8068
▁믿어	-10.8069
▁착하	-10.8069
섯	-10.8071
▁미국식	-10.8072
보길	-10.808
쏴	-10.809
▁미스캐스팅	-10.809
▁오그라드는	-10.809
▁오그라들	-10.809
퀸	-10.809
▁멋져요	-10.8091
드려요	-10.8091
▁거기서	-10.8091
머릿속	-10.8092
▁광기	-10.8092
할정도로	-10.8094
▁오로지	-10.8096
졌으면	-10.8096
▁아쉬울	-10.8099
▁좋으나	-10.81
▁혼란	-10.8102
▁사랑스럽고	-10.8102
▁없던	-10.8107
▁충분하다	-10.8108
▁보여줘	-10.8109
▁역사적	-10.8109
옷	-10.8116
▁웃었다	-10.8118
학년때	-10.8118
그래픽	-10.8118
▁조낸	-10.812
▁살아남	-10.8125
▁영원	-10.8125
▁이런식으로	-10.8126
하겠습니다	-10.8134
▁완벽하다	-10.8137
▁기발한	-10.8141
영상미	-10.8141
선생님	-10.8144
몇번	-10.8147
▁실사	-10.8151
▁커버	-10.8153
▁분장	-10.8155
▁일반인	-10.8158
멋진	-10.8158
입니까	-10.816
▁미쳐	-10.8171
▁모르겠네	-10.8174
▁두명	-10.8182
▁못만들	-10.8222
▁되는데	-10.8222
어설프	-10.8228
▁정체	-10.8229
챙	-10.8231
▁유치찬란	-10.8235
▁점수준것들	-10.8235
겻	-10.8235
맷	-10.8235
팝	-10.8235
팽	-10.8235
훔	-10.8235
랏	-10.8235
▁데이빗	-10.8235
▁괜찬	-10.8235
▁혁명	-10.8236
com	-10.8236
▁들어간	-10.8238
▁보고나니	-10.8238
▁그려낸	-10.8238
▁에라이	-10.8239
▁케미	-10.8239
▁민족	-10.8239
페이스	-10.824
▁오래전에	-10.8243
▁시험	-10.8245
부르	-10.825
▁태국	-10.8253
▁낚인	-10.8261
▁강추합니다	-10.8267
지못한	-10.8268
촬영	-10.827
▁감명	-10.8273
버그	-10.8273
▁비록	-10.8273
예쁘	-10.8277
민호	-10.828
폭력	-10.8285
예뻐	-10.829
성룡	-10.829
었구나	-10.8292
할수없는	-10.8294
▁믿음	-10.8295
▁않습니다	-10.83
▁못하겠다	-10.8308
▁당장	-10.8308
▁어이없음	-10.8313
▁잼있네요	-10.8321
▁스릴러물	-10.8328
us	-10.833
영활	-10.8332
▁가능성	-10.834
그녀	-10.8349
하하하하	-10.8352
▁부담	-10.8355
검사	-10.8376
뚜	-10.8382
짙	-10.8382
▁스필버그	-10.8382
샌	-10.8382
▁납득	-10.8382
▁섬세한	-10.8382
▁니콜라스	-10.8382
▁슈퍼맨	-10.8385
▁강아지	-10.8386
▁찬양	-10.8387
▁모자라	-10.8399
▁개봉당시	-10.8405
▁한가지	-10.8408
▁ᄒᄃᄃ	-10.8412
▁가짜	-10.8415
▁매번	-10.8422
▁귀여	-10.8426
▁아이들에게	-10.8427
▁주온	-10.8435
▁안나옴	-10.8435
ᄏᄏᄏᄏᄏᄏᄏ	-10.8439
▁웃겨서	-10.8444
▁제대로된	-10.845
그대로	-10.8458
▁말밖에	-10.8468
▁경우	-10.8468
맞음	-10.848
영화관에서	-10.8497
▁배우분들	-10.85
야말로	-10.8517
밋	-10.8525
있었는데	-10.8529
ᄊ	-10.8531
숲	-10.8531
▁왕조현	-10.8531
▁여러모로	-10.8531
▁권상우	-10.8531
▁후속편	-10.8531
▁일주일	-10.8531
▁자연스럽게	-10.8533
▁무의미	-10.8534
▁말이필요없다	-10.8534
▁멋짐	-10.8538
▁음향	-10.8546
▁재미없네요	-10.8549
맥스	-10.8565
묻	-10.8579
▁볼것	-10.8584
▁시체	-10.8588
다시보고싶	-10.8592
▁환상적인	-10.8597
▁완성	-10.8597
▁커서	-10.8602
질질끄	-10.8602
엉성	-10.8607
노출	-10.8613
회부터	-10.8617
▁고마	-10.8632
▁나왔던	-10.8641
ce	-10.8647
▁있긴	-10.8653
둑	-10.8679
▁넘어서	-10.8681
흉	-10.8682
켰	-10.8682
둠	-10.8682
뼈	-10.8682
턱	-10.8682
▁세련된	-10.8682
▁엉망진창	-10.8682
▁짬뽕	-10.8682
덧	-10.8682
▁캐릭	-10.8683
▁명성에	-10.8683
▁보지마셈	-10.8683
▁온갖	-10.8684
흑흑	-10.8684
▁극혐	-10.8684
ood	-10.8685
▁늙은	-10.8686
▁알려주는	-10.8689
▁스릴감	-10.8694
▁있겠지만	-10.8697
▁늙어	-10.8703
▁장난하나	-10.8711
▁좋더라	-10.8712
볼때	-10.8714
▁기발	-10.8715
▁채우	-10.8716
il	-10.8718
▁의미있는	-10.8721
보니깐	-10.8722
▁보고싶은데	-10.8723
▁마블	-10.8727
것같음	-10.873
▁미치겠	-10.8733
▁주려	-10.8739
▁보게되는	-10.8741
▁어린애	-10.8742
채널돌	-10.8742
깐	-10.875
▁공연	-10.8753
넘치는	-10.8755
볼꺼	-10.876
아니었	-10.876
웃긴	-10.8768
▁소유	-10.8775
▁아이유	-10.8788
▁뜬금없	-10.879
▁사회적	-10.8807
투성이	-10.8812
키우	-10.8824
빠짐	-10.8827
첩	-10.8834
헨	-10.8836
켓	-10.8836
▁브래드	-10.8836
▁비쥬얼	-10.8836
▁살렸다	-10.8836
밟	-10.8836
넓	-10.8836
뜯	-10.8836
솜	-10.8836
▁떡밥	-10.8836
▁상업영화	-10.8837
▁레옹	-10.8839
▁호흡	-10.8841
▁재앙	-10.8848
김정	-10.8849
▁뭐랄까	-10.8851
▁개인적인	-10.8853
더라고요	-10.8882
▁미학	-10.8895
▁부산	-10.8897
나왔으면	-10.8903
▁모방	-10.8904
▁봐줄만	-10.8906
▁역작	-10.8906
▁망쳐놓	-10.8911
철학	-10.8911
ᅲᅲᅲᅲᅲ	-10.8926
보여서	-10.8929
천재	-10.8935
▁살아야	-10.8954
파격적	-10.8973
딜	-10.8987
안녕	-10.8989
▁굿굿굿	-10.8989
지않나	-10.899
감명깊	-10.8991
▁엔딩크레딧	-10.8992
꾹	-10.8992
잣	-10.8992
텅	-10.8992
▁뒤늦게	-10.8993
뜸	-10.8993
릅	-10.8993
줫	-10.8993
▁완젼	-10.8993
▁클래식	-10.8993
▁드니로	-10.8993
▁어설프게	-10.8994
▁무협영화	-10.8995
▁그럴싸	-10.8995
▁복잡하	-10.8996
▁2015	-10.8996
▁가슴아프	-10.8996
▁승부	-10.8997
성유리	-10.8997
▁동감	-10.8999
▁잔잔함	-10.9001
죽는줄	-10.9004
▁세계관	-10.9012
▁반응	-10.9014
▁고증	-10.9017
▁게스트	-10.9019
않았다	-10.9021
▁성형	-10.9036
▁오직	-10.9047
덕분에	-10.9062
마무리	-10.9064
될까	-10.9064
▁나열	-10.9068
알았	-10.9071
▁화질	-10.9073
▁상식	-10.9091
지않을	-10.9097
단순	-10.9097
봣어요	-10.9098
▁어색함	-10.9105
취급	-10.9116
▁찍으	-10.9132
혐	-10.9149
쇠	-10.9151
▁고등학생	-10.9151
▁싸이코패스	-10.9151
렘	-10.9151
▁깨달음	-10.9151
▁다이하드	-10.9151
▁멈추	-10.9151
▁감성팔이	-10.9151
▁한효주	-10.9152
▁러브스토리	-10.9152
▁흥미롭게	-10.9152
▁컬트	-10.9152
▁바란다	-10.9152
▁지겨워	-10.9152
▁수면제	-10.9152
▁뉴스	-10.9153
▁증명	-10.9153
▁픽사	-10.9157
작가님	-10.9163
▁개꿀잼	-10.9172
▁또라이	-10.9172
▁소품	-10.9174
▁심각하게	-10.9175
▁처음본다	-10.9177
▁재밌었습니다	-10.9179
▁기억난다	-10.918
▁더욱더	-10.918
▁꼭봐야	-10.9182
av	-10.9183
▁감정선	-10.9184
보신분	-10.9186
▁넘쳐	-10.9191
▁편인데	-10.9207
▁채워	-10.9207
▁파워	-10.9213
취향	-10.9222
▁대역	-10.9223
무서워	-10.9232
누님	-10.9233
완벽	-10.9233
암튼	-10.9235
다시봐도	-10.9243
영웅	-10.9247
▁청년	-10.9247
모르겠다	-10.9248
▁독립	-10.9301
id	-10.9305
봇	-10.9311
썰	-10.9312
▁런닝타임	-10.9313
▁호불호가	-10.9313
곁	-10.9313
썬	-10.9313
▁원주율	-10.9313
▁아기자기	-10.9313
▁박평식	-10.9313
▁엉뚱	-10.9313
▁깜놀	-10.9313
▁김수현	-10.9313
▁두고두고	-10.9313
▁가까이	-10.9314
▁쏘우	-10.9314
▁상큼	-10.9315
파이팅	-10.9315
땜시	-10.9316
▁괴롭	-10.9316
▁문득	-10.9318
vs	-10.9321
▁열광	-10.9327
▁공허	-10.9331
▁에로물	-10.9332
▁괜찮았던	-10.934
▁시청자들	-10.9344
▁싶었는데	-10.9346
▁느껴질	-10.9351
됬는데	-10.9358
▁울림	-10.9363
▁알아야	-10.937
▁최고에요	-10.9371
갑자기	-10.9399
▁데려다	-10.9415
실패	-10.9415
완벽하게	-10.9441
▁OOOO	-10.9443
▁태어나	-10.9459
▁-_-;;	-10.947
구먼	-10.9472
▁전편보다	-10.9475
▁심리묘사	-10.9476
꽁	-10.9476
얀	-10.9476
▁팝콘	-10.9476
▁한석규	-10.9476
넷	-10.9476
▁스페인	-10.9476
▁안타까움	-10.9477
▁외로움	-10.9477
▁멘탈	-10.9477
▁로맨틱코미디	-10.948
밖엔	-10.9482
▁억지스런	-10.9484
▁산만하	-10.9486
▁국산	-10.949
▁시골	-10.9494
▁감동적이었다	-10.9502
▁우왕	-10.9508
줄알고	-10.9508
▁주고싶다	-10.9513
▁나올까	-10.9518
영화자체는	-10.9522
약간	-10.9522
▁비교하면	-10.9523
▁레오	-10.9527
▁있었습니다	-10.9536
ter	-10.9548
▁정체성	-10.9564
▁당당	-10.9567
저예산	-10.9571
무서운	-10.9571
볼때마다	-10.9581
▁없으니	-10.9603
오로라	-10.9618
▁오랜	-10.9627
비행	-10.9628
뗄	-10.9635
룸	-10.9643
아카데미	-10.9643
▁군더더기	-10.9643
▁박찬욱	-10.9643
▁애니매이션	-10.9643
좆	-10.9643
▁손예진	-10.9643
▁찬사를	-10.9643
▁어수선	-10.9643
장근석	-10.9643
▁농담	-10.9643
▁틀림없	-10.9644
▁크리스찬	-10.9646
▁형식	-10.9649
▁웃겼다	-10.9649
▁패션	-10.9652
▁재탕	-10.9653
▁사이코	-10.9655
끝날때까지	-10.9657
끝내	-10.9657
▁번역	-10.9662
▁절반	-10.9663
▁go	-10.9693
하려면	-10.9694
▁기대된다	-10.9695
보기엔	-10.9697
▁뛰어넘	-10.9715
60	-10.9732
카메라	-10.9746
죽이고	-10.9748
진정한	-10.975
재밋어요	-10.9782
평생	-10.9787
때리고	-10.9796
▁환상적	-10.9808
▁일깨워	-10.9811
댓	-10.9811
냄	-10.9811
졋	-10.9813
▁크레딧	-10.9813
런닝맨	-10.9813
짖	-10.9813
▁가슴아픈	-10.9813
콘서트	-10.9813
▁흑역사	-10.9813
▁김희선	-10.9813
▁정주행	-10.9813
▁데뷔작	-10.9813
▁아바타	-10.9813
당시에는	-10.9814
▁갖춘	-10.9816
▁낮추	-10.982
같애	-10.982
▁닮았	-10.9822
▁생존	-10.9825
졌어요	-10.9826
▁치료	-10.9827
▁피곤	-10.9828
▁좋아하시는	-10.9828
▁시대적	-10.9832
▁냉정	-10.9833
▁아깝습니다	-10.9834
▁모독	-10.9839
▁적극	-10.984
▁복선	-10.984
▁만날	-10.9845
▁제왕	-10.9847
▁회상	-10.986
▁어린아이	-10.9861
▁향기	-10.9868
만들엇	-10.9876
▁또보고싶	-10.9877
▁향한	-10.9878
멋대로	-10.988
▁브레	-10.9881
▁무리수	-10.9887
95	-10.9925
더럽게	-10.9925
ᄉᄇ	-10.9928
잘봤습니다	-10.993
갔으면	-10.9932
별루	-10.996
삘	-10.9985
훗	-10.9985
▁그냥저냥	-10.9985
▁웬만하면	-10.9985
▁설경구	-10.9985
▁윌리스	-10.9985
아쉬웠지만	-10.9985
그나저나	-10.9985
랍니다	-10.9986
▁귀찮	-10.9987
▁환장	-10.9989
ᄃᄃᄃᄃ	-10.999
밴드	-10.9992
▁황금	-10.9997
ri	-10.9997
▁바랬	-10.9997
▁재방송	-11
▁감동적입니다	-11
▁흥미롭지	-11.0001
▁진행되는	-11.0005
▁이기적인	-11.0005
▁질문	-11.0006
강력추천	-11.0009
▁떨어졌	-11.001
▁보게되었	-11.0014
▁모순	-11.0015
팬이라	-11.0016
년동안	-11.0019
▁빠질	-11.0022
▁알려준	-11.0023
▁웃다가	-11.0023
▁흉내내	-11.0025
▁해외	-11.0027
▁인간적으로	-11.0031
▁미술	-11.0035
la	-11.0043
op	-11.0052
원주고	-11.0061
im	-11.0063
보지마라	-11.007
조심	-11.0074
▁머리속	-11.0084
톰	-11.0106
쫌	-11.0106
▁대학생	-11.0107
▁만들었으면	-11.0109
좋겠다	-11.0113
힘든	-11.0117
보지마세요	-11.013
▁내놓	-11.0137
▁보러갔	-11.0139
삽	-11.016
뱅	-11.016
▁기다렸	-11.016
▁송승헌	-11.016
▁오랫동안	-11.016
껍	-11.016
믄	-11.016
쏙	-11.016
▁국어책	-11.016
▁엑스맨	-11.016
▁홧팅	-11.016
앜	-11.016
▁완죤	-11.016
▁복잡한	-11.0161
▁흠잡을	-11.0161
▁보낸다	-11.0161
very	-11.0161
▁색채	-11.0161
▁히어로물	-11.0161
▁다니엘	-11.0161
▁지브리	-11.0161
▁미친듯이	-11.0162
▁치밀하	-11.0164
▁찢어	-11.0164
><	-11.0164
▁자연스러운	-11.0168
십니다	-11.017
▁시간아까워	-11.017
▁내취향	-11.0173
점도아깝다	-11.018
▁초반엔	-11.0182
▁불쌍해서	-11.0212
모델	-11.0238
겠는가	-11.0253
▁검색해	-11.0292
,,,,,,,	-11.03
cg	-11.0301
수가없다	-11.0309
곽	-11.0339
^_^	-11.0339
▁테이큰	-11.0339
▁트랜스포머	-11.0339
녁	-11.0339
▁2.22	-11.0339
▁차태현	-11.0339
욬	-11.0339
The	-11.0339
▁뚝뚝	-11.0339
▁팍팍	-11.0339
펭	-11.0339
▁레이첼	-11.0339
▁어차피	-11.0339
▁김혜수	-11.0339
▁지저분	-11.0339
▁타이틀	-11.0339
▁색깔	-11.0339
점준것중	-11.0339
▁예뻐서	-11.034
▁엠마	-11.034
▁관람객	-11.0341
▁학살	-11.0341
▁허허	-11.0341
▁첫번째	-11.0344
▁방황	-11.0346
▁람보	-11.0346
▁튀어	-11.0347
▁언론	-11.035
나보네	-11.0351
▁장혁	-11.0353
▁증거	-11.0353
▁간직	-11.0356
▁허탈	-11.0357
▁지나친	-11.0359
▁경악	-11.0361
▁동화같은	-11.0364
▁재미없었음	-11.0369
봤을땐	-11.0374
▁건강	-11.0378
큼	-11.0381
▁없애	-11.0388
▁못하겠	-11.0396
▁네이버평점	-11.0403
007	-11.0422
▁있어보이	-11.0428
▁야하지도	-11.0437
▁역겹	-11.0454
활동	-11.0457
▁봐줄	-11.0475
봤었는데	-11.048
▁끌려	-11.0489
독립영화	-11.049
되다니	-11.0497
▁풀어내	-11.0501
ᄍᄍᄍ	-11.0504
▁재수없	-11.051
킥	-11.0521
깡	-11.0521
떳	-11.0521
****	-11.0521
▁새록새록	-11.0521
▁인상깊게	-11.0521
툰	-11.0521
릉	-11.0521
▁사무라이	-11.0521
▁힙합	-11.0521
▁오페라	-11.0521
▁나머진	-11.0521
▁최민수	-11.0521
위원회	-11.0521
▁손색이	-11.0521
▁멀쩡	-11.0521
▁아침드라마	-11.0534
▁복수극	-11.0536
▁반갑	-11.0541
▁재밌기만	-11.0542
▁백배	-11.0547
▁돈벌	-11.0548
▁흐르	-11.055
▁재미나게	-11.055
▁되었습니다	-11.0559
▁느낄수있	-11.0561
썩	-11.0673
불륜	-11.0677
▁진정성	-11.068
아이돌	-11.0682
제작비	-11.0683
뿔	-11.0697
훌	-11.0706
드래곤	-11.0706
▁겨울왕국	-11.0706
▁고맙습니다	-11.0706
▁시끄럽	-11.0706
▁이따구로	-11.0706
▁클리셰	-11.0706
▁학창시절	-11.0706
▁흐지부지	-11.0706
▁어설퍼	-11.0706
▁말았어야	-11.0706
▁이것저것	-11.0706
▁구혜선	-11.0706
찜찜	-11.0706
▁드래곤볼	-11.0706
▁어떠한	-11.0706
▁어딘가	-11.0706
▁원피스	-11.0706
▁픽션	-11.0706
▁어지럽	-11.0706
▁모자란	-11.0707
▁전지현	-11.0707
▁거슬리	-11.0707
▁택시	-11.0708
▁빈약한	-11.0709
▁압도적	-11.0709
앵글	-11.0709
▁상당한	-11.0713
▁과장된	-11.0716
▁종합	-11.0717
▁따뜻함	-11.0718
▁성찰	-11.0719
▁우롱	-11.072
▁놀라울	-11.0721
▁마틴	-11.0721
▁꺼져	-11.0722
▁지루했음	-11.0725
▁신세계	-11.0727
그자체	-11.0729
▁감동적임	-11.0733
▁한번씩	-11.0735
▁찾았	-11.0741
▁틀어주	-11.0745
클럽	-11.075
흥미를	-11.0758
▁세월	-11.0761
역활	-11.0765
///	-11.0771
▁돋보이	-11.0799
중딩	-11.0807
똑같	-11.0811
타령	-11.0821
▁알게된	-11.085
넌	-11.0868
특유의	-11.0869
프랑스	-11.0869
유쾌	-11.0892
스러울	-11.0893
풋	-11.0894
▁어우러진	-11.0895
뎁	-11.0895
칫	-11.0895
핸	-11.0895
▁다크나이트	-11.0895
▁영웅본색	-11.0895
▁재발견	-11.0895
빤	-11.0895
켈	-11.0895
▁두려움	-11.0895
▁모성애	-11.0895
▁장동건	-11.0895
▁색다르	-11.0895
▁왕가위	-11.0895
▁담겨있	-11.0896
▁전도연	-11.0897
▁김구라	-11.0897
▁스토리라인	-11.0899
▁낚여서	-11.09
▁사라진	-11.09
라이즈	-11.0901
▁존경합니다	-11.0903
▁웃으며	-11.0905
▁8.5	-11.0914
▁단역	-11.0924
▁경계	-11.093
▁so	-11.0948
▁소소하	-11.0953
▁아쉬워	-11.0958
가아니라	-11.0972
것도아니고	-11.0982
바탕	-11.0996
▁유치하기	-11.0998
교육	-11.1013
▁비극적	-11.1029
▁깨닫	-11.1059
낙	-11.1068
보느라	-11.1068
즌	-11.1071
챙겨	-11.1073
필름	-11.1078
믹	-11.1083
뷔	-11.1087
긍	-11.1087
겄	-11.1087
▁고스란히	-11.1087
▁드림웍스	-11.1087
▁뮤직비디오	-11.1087
▁미야자키	-11.1087
▁어쨌든	-11.1087
▁파워레인저	-11.1087
갇	-11.1087
▁도라에몽	-11.1087
▁아이언맨	-11.1087
▁에드워드	-11.1087
멕	-11.1087
습니당	-11.1087
▁조승우	-11.1087
▁이정재	-11.1088
▁웅장	-11.1088
▁아동용	-11.1088
▁안타까웠	-11.1091
▁죽기전에	-11.1092
▁고마운	-11.1092
PD	-11.1092
▁욕나온다	-11.1096
헌터	-11.1098
-.-	-11.1098
▁제정신	-11.1102
▁커피	-11.1105
▁많은것을	-11.111
▁드문	-11.1112
노동자	-11.1113
▁의견	-11.1116
▁전투씬	-11.1149
오래전	-11.118
고싶지	-11.1211
▁가볍지	-11.1211
이아니라	-11.1211
est	-11.1262
꿔	-11.128
묶	-11.1283
헝	-11.1283
늬	-11.1283
밨	-11.1283
▁다세포소녀	-11.1283
▁이탈리아	-11.1283
겸	-11.1283
윽	-11.1283
코스프레	-11.1283
▁키아누	-11.1283
▁힘내세요	-11.1283
▁정확히	-11.1283
별반개도	-11.1283
▁어둡고	-11.1283
▁오우삼	-11.1283
띵	-11.1283
▁김명민	-11.1283
▁여기저기	-11.1283
▁태어난	-11.1283
▁일어날	-11.1283
▁저절로	-11.1283
꼬맹이	-11.1283
▁비정상	-11.1284
▁스킵	-11.1284
▁납치	-11.1284
▁사라져	-11.1284
까말까	-11.1285
▁클라스	-11.1285
▁보여줌	-11.1286
▁줄리아	-11.1287
▁어딜	-11.129
▁이민기	-11.1292
였으나	-11.1294
2005	-11.1295
▁몰락	-11.1296
▁않았을까	-11.1298
▁고인의	-11.1298
▁영광	-11.1306
라이브	-11.1306
▁신경쓰	-11.131
▁울었습니다	-11.1313
▁늙었	-11.132
▁소중하	-11.1324
볼껄	-11.1329
▁이은주	-11.1342
내놔	-11.1345
합니까	-11.1365
all	-11.1387
느님	-11.1405
점만점	-11.1443
귀여워	-11.147
끊	-11.1474
웬	-11.1481
꽤	-11.1482
어설픈	-11.1482
펼	-11.1483
둡	-11.1483
쉣	-11.1483
▁똑바로	-11.1483
▁엉터리	-11.1483
▁팀버튼	-11.1483
♡♡♡	-11.1483
▁소피마르소	-11.1483
▁신데렐라	-11.1483
륵	-11.1483
벙	-11.1483
샷	-11.1483
펠	-11.1483
▁미장센	-11.1483
▁애국심	-11.1483
▁징징	-11.1483
▁2003	-11.1484
▁잃어버린	-11.1485
▁온몸	-11.1486
안쓰는데	-11.1487
▁경의를	-11.1488
▁돌려줘	-11.1489
▁감옥	-11.1491
극장판	-11.1492
괜히	-11.1492
▁ᄅᄋ	-11.1494
▁극찬	-11.1496
할게요	-11.1497
그룹	-11.1497
▁없을까	-11.1499
▁출발	-11.15
▁빨간	-11.15
▁실패작	-11.1504
CGV	-11.1568
폭탄	-11.159
페이지	-11.1597
빼놓	-11.166
뜬금	-11.1675
뽑	-11.1685
빈약	-11.1686
끗	-11.1687
쯧	-11.1687
http	-11.1687
륙	-11.1687
텀	-11.1687
펀	-11.1687
펴	-11.1687
닦	-11.1687
췄	-11.1687
핏	-11.1687
흰	-11.1687
개인적으론	-11.1687
▁간간히	-11.1687
▁모티브	-11.1687
▁초중반	-11.1687
▁신세경	-11.1687
▁정당화	-11.1687
▁오인혜	-11.1687
▁조용히	-11.1687
▁ᄇᄉ	-11.1687
▁함부로	-11.1687
▁엽문	-11.1687
▁솔까	-11.1688
▁활용	-11.1688
▁록키	-11.1688
▁이해안가	-11.169
://	-11.169
▁말아먹은	-11.1692
예고편	-11.1702
▁조금씩	-11.1703
▁얘들	-11.1721
졸업	-11.1762
▁광팬	-11.1775
▁그지없	-11.1793
▁민망하	-11.1841
▁대단했	-11.1874
럿	-11.1896
웰	-11.1896
▁곱씹	-11.1896
▁과대평가	-11.1896
▁기대됩니다	-11.1896
뎌	-11.1896
탠	-11.1896
뉘	-11.1896
▁절제된	-11.1896
잎	-11.1896
▁김민종	-11.1896
▁한쿡영화	-11.1896
▁미치도록	-11.1896
▁침묵	-11.1896
▁뛰쳐	-11.1896
▁사로잡	-11.1896
▁콜린	-11.1896
▁best	-11.1897
▁끊임없	-11.1897
▁7.5	-11.1897
▁담백하	-11.19
▁초능력	-11.1902
▁응원합니다	-11.1902
▁안성기	-11.1903
왜이럼	-11.1905
▁역쉬	-11.1907
▁출현	-11.191
아줌마	-11.1911
왜이래	-11.1912
낮아서	-11.1918
▁기분좋은	-11.1942
볼걸	-11.2037
▁첨이네	-11.2037
짓거리	-11.2062
빠지고	-11.2082
▁이해되	-11.2091
싶을때	-11.2092
▁몰입되	-11.2107
꿨	-11.2108
쌩	-11.2108
▁매끄럽지	-11.2108
▁허무맹랑	-11.2108
궈	-11.2108
긔	-11.2108
딕	-11.2108
빚	-11.2108
↓	-11.2108
▁양동근	-11.2108
▁에일리언	-11.2108
쉰	-11.2108
▁더더욱	-11.2108
▁멘붕	-11.2108
떄문에	-11.2108
▁임청하	-11.2108
▁뉴욕	-11.2108
▁잘생긴	-11.2109
▁의외의	-11.2109
▁혹평	-11.2109
▁담아내	-11.2109
▁아까웠던	-11.2109
▁사기꾼	-11.211
▁짐승	-11.211
▁간첩	-11.2111
▁증말	-11.2111
젼	-11.2308
둬	-11.2326
탭	-11.2326
넼	-11.2326
뱉	-11.2326
#	-11.2326
퇴	-11.2351
’	-11.2548
꺄	-11.2548
낳	-11.2593
볍	-11.2631
뜩	-11.2774
률	-11.2775
쵝	-11.2775
맙	-11.2775
셜	-11.2775
‘	-11.2775
꼇	-11.2775
넋	-11.2775
눠	-11.2775
댕	-11.2775
뺨	-11.2775
웩	-11.2775
뻘	-11.2775
쑤	-11.2775
흙	-11.2775
쏠	-11.3008
샬	-11.3008
쌀	-11.3008
힛	-11.3008
꽝	-11.3075
씁	-11.3243
듀	-11.3246
댐	-11.3246
됌	-11.3246
엎	-11.3246
콕	-11.3246
q	-11.3246
뒀	-11.3246
캬	-11.3325
짬	-11.349
샀	-11.349
췌	-11.349
Z	-11.349
人	-11.349
엌	-11.349
쿄	-11.349
햄	-11.349
·	-11.349
뀌	-11.3737
줍	-11.3738
낄	-11.3739
캡	-11.3739
욜	-11.374
ᅦ	-11.374
꽂	-11.374
댈	-11.374
돕	-11.374
딧	-11.374
숫	-11.374
쌈	-11.374
촉	-11.374
칩	-11.374
녹	-11.3844
톨	-11.3996
팡	-11.3996
헬	-11.4121
쌤	-11.4259
펐	-11.4259
홉	-11.4259
뇨	-11.4259
뺀	-11.4259
쫙	-11.4259
펄	-11.4259
귓	-11.4259
핳	-11.4259
밴	-11.4518
됴	-11.453
롬	-11.453
좁	-11.453
쬐	-11.453
퍽	-11.453
횽	-11.453
짠	-11.4679
밌	-11.4801
덥	-11.4807
훼	-11.4807
캅	-11.4807
젓	-11.4807
퀀	-11.4807
냅	-11.4807
얌	-11.4807
냉	-11.4972
찢	-11.5087
ᆞ	-11.5093
닳	-11.5093
붐	-11.5093
솟	-11.5093
탔	-11.5093
샹	-11.5093
횡	-11.5093
죤	-11.5387
욧	-11.5387
젬	-11.5387
땠	-11.5387
슐	-11.5387
씌	-11.5387
햐	-11.5387
킷	-11.5387
옵	-11.5688
갸	-11.569
씽	-11.569
쨩	-11.569
ᄑ	-11.569
꿋	-11.569
썅	-11.569
쟝	-11.569
뚤	-11.569
걱	-11.6002
캔	-11.6002
윙	-11.6003
甲	-11.6003
갤	-11.6003
뤽	-11.6003
쌔	-11.6003
윗	-11.6003
핍	-11.6003
ᅭ	-11.6003
쪄	-11.6003
훅	-11.6003
쩡	-11.6325
찜	-11.6325
륭	-11.6325
붓	-11.6325
엥	-11.6325
뜰	-11.6325
짚	-11.6325
괘	-11.6325
됀	-11.6325
맡	-11.6588
늑	-11.6657
깬	-11.6659
깽	-11.6659
꺅	-11.6659
꾀	-11.6659
밭	-11.6659
섰	-11.6659
셰	-11.6659
슌	-11.6659
얕	-11.6659
굵	-11.6659
늠	-11.6659
뺐	-11.6659
썽	-11.6659
몹	-11.6659
○	-11.6659
\	-11.6659
뭥	-11.7003
Q	-11.7003
곸	-11.7003
밸	-11.7003
웹	-11.7003
짭	-11.7003
쵸	-11.7003
퀼	-11.7003
|	-11.7004
힙	-11.7361
뱃	-11.7361
쟤	-11.7361
휼	-11.7361
웁	-11.7361
훨	-11.77
잭	-11.77
뎈	-11.7731
ᅣ	-11.7731
乃	-11.7731
댔	-11.7731
쑈	-11.7731
융	-11.7731
뛴	-11.7731
빽	-11.7731
앳	-11.7731
떤	-11.8088
옛	-11.8098
펙	-11.8108
낌	-11.8113
뵈	-11.8116
겜	-11.8116
굼	-11.8116
낱	-11.8116
빔	-11.8116
뺴	-11.8116
쳇	-11.8116
핡	-11.8116
팜	-11.8116
♬	-11.8116
첼	-11.8515
댜	-11.8516
낰	-11.8516
긁	-11.8516
ᅧ	-11.8516
텍	-11.8516
꺽	-11.8516
떴	-11.8516
욘	-11.8516
힝	-11.8516
無	-11.8516
꿉	-11.8516
딥	-11.8516
싯	-11.8516
캣	-11.8516
촬	-11.8927
옜	-11.8932
뿅	-11.8932
쉘	-11.8932
“	-11.8932
뇬	-11.8932
뮬	-11.8932
샴	-11.8932
→	-11.8932
、	-11.8932
헛	-11.8952
푹	-11.8953
돠	-11.9367
걔	-11.9367
뷁	-11.9367
벡	-11.9367
풉	-11.9367
얔	-11.9367
곧	-11.9406
닙	-11.9821
멧	-11.9822
쾅	-11.9822
꺾	-11.9822
땟	-11.9822
쁠	-11.9822
쨔	-11.9822
폄	-11.9822
꿰	-11.9822
첸	-11.9822
쩐	-12.0206
룻	-12.0298
”	-12.0298
맬	-12.0298
읎	-12.0298
쪙	-12.0298
퉷	-12.0298
훤	-12.0298
씹	-12.0383
갚	-12.0798
괸	-12.0798
뺑	-12.0798
넉	-12.0798
넴	-12.0798
댁	-12.0798
땔	-12.0798
뿍	-12.0798
욯	-12.0798
쫑	-12.0798
쳣	-12.0798
칵	-12.0798
텨	-12.0798
핥	-12.0798
핰	-12.0798
겔	-12.0798
뭍	-12.0798
땜	-12.1223
헷	-12.1324
쒯	-12.1324
잌	-12.1324
쿤	-12.1324
롹	-12.1324
륨	-12.1324
뻗	-12.1324
숴	-12.1324
쏜	-12.1324
퀘	-12.1324
눅	-12.188
젝	-12.188
좃	-12.188
겅	-12.188
넨	-12.188
떵	-12.188
랖	-12.188
얍	-12.188
잰	-12.188
찼	-12.188
툴	-12.188
괄	-12.188
굽	-12.188
넝	-12.188
슥	-12.188
앰	-12.188
웡	-12.188
킁	-12.188
넥	-12.188
깼	-12.188
$	-12.188
퐁	-12.2468
됏	-12.2468
휙	-12.2468
굶	-12.2468
껌	-12.2468
꽈	-12.2468
믓	-12.2468
뿡	-12.2468
샵	-12.2468
읊	-12.2468
졷	-12.2468
챔	-12.2468
쿼	-12.2468
쒸	-12.2468
끽	-12.2468
볶	-12.3093
왁	-12.3093
♪	-12.3093
꼐	-12.3093
뎃	-12.3093
렜	-12.3093
벳	-12.3093
욥	-12.3093
죵	-12.3093
뤠	-12.3093
썹	-12.3093
웍	-12.376
큭	-12.376
헿	-12.376
갯	-12.376
꺠	-12.376
냔	-12.376
냠	-12.376
멱	-12.376
쏭	-12.376
잴	-12.376
콱	-12.376
흣	-12.376
ᄈ	-12.376
쎈	-12.376
뒷	-12.406
컥	-12.4471
챈	-12.4474
섀	-12.4474
곀	-12.4474
궤	-12.4474
꿍	-12.4474
넛	-12.4474
닛	-12.4474
돔	-12.4474
뒹	-12.4474
줏	-12.4474
쨰	-12.4474
캄	-12.4474
팟	-12.4474
옌	-12.4474
햅	-12.4474
혓	-12.5243
잦	-12.5243
컵	-12.5243
ᆪ	-12.5243
』	-12.5243
놉	-12.5243
짰	-12.5243
팰	-12.5243
作	-12.5243
뒈	-12.5243
읭	-12.5243
컹	-12.5243
쮸	-12.5243
끙	-12.5243
女	-12.5244
し	-12.5245
『	-12.6076
뽐	-12.6076
촤	-12.6076
뭄	-12.6076
딛	-12.6076
뮈	-12.6076
찟	-12.6076
찹	-12.6076
촐	-12.6076
캉	-12.6076
랠	-12.6076
웽	-12.6076
死	-12.6076
}	-12.6077
い	-12.6078
봅	-12.6983
롸	-12.6985
먀	-12.6985
옄	-12.6985
쥴	-12.6985
쫘	-12.6985
챤	-12.6985
츰	-12.6985
깟	-12.6985
뀨	-12.6985
렙	-12.6985
뺄	-12.6985
앱	-12.6985
밓	-12.6985
콰	-12.6985
갘	-12.6986
{	-12.6986
ス	-12.6988
ッ	-12.6988
눔	-12.7985
슝	-12.7985
퀵	-12.7985
깸	-12.7985
랔	-12.7985
븅	-12.7985
숑	-12.7985
숱	-12.7985
슛	-12.7985
쥰	-12.7985
짘	-12.7985
챠	-12.7985
숏	-12.7985
낑	-12.7985
뇽	-12.7985
で	-12.7988
킵	-12.9093
밈	-13.0347
굉	-13.3441
텝	-13.5377
챘	-14.0886
엊	-14.0887
씸	-14.0888
숟	-14.0889
벚	-14.089
몆	-14.0891
괭	-14.0892
햌	-14.0893
툼	-14.0894
텼	-14.0895
짴	-14.0896
썪	-14.0897
쌉	-14.0898
꿇	-14.0899
궂	-14.09
흩	-14.0901
쉼	-14.0902
故	-14.0903
짊	-14.0904
앍	-14.0905
랗	-14.0906
뉜	-14.0907
홥	-14.0908
헠	-14.0909
샛	-14.091
닠	-14.0911
놧	-14.0912
냨	-14.0913
̄	-14.0914
츤	-14.0915
쑥	-14.0916
덱	-14.0917
눕	-14.0918
뀜	-14.0919
훑	-14.092
춥	-14.0921
윅	-14.0922
빴	-14.0923
휠	-14.0924
헴	-14.0925
촛	-14.0926
낍	-14.0927
괞	-14.0928
횟	-14.0929
큽	-14.093
빰	-14.0931
껑	-14.0932
좔	-14.0933
샐	-14.0934
쁩	-14.0935
촘	-14.0936
멎	-14.0937
큘	-14.0938
딪	-14.0939
뀔	-14.094
뵙	-14.0941
콥	-14.0942
쥑	-14.0943
휩	-14.0944
낡	-14.0945
셸	-14.0946
펏	-14.0947
릎	-14.0948
씻	-14.0949
쥔	-14.095
얹	-14.0951
왼	-14.0952
뤘	-14.0953
픕	-14.0954
켠	-14.0955
녔	-14.0956
딨	-14.0957
탤	-14.0958
꼼	-14.0959
얽	-14.096
뀐	-14.0961
꽥	-14.0962
뭡	-14.0963
쫒	-14.0964
앓	-14.0965
끓	-14.0966
썻	-14.0967
쨋	-14.0968
붉	-14.0969
뻣	-14.097
귄	-14.0971
멤	-14.0972
뿜	-14.0973
옮	-14.0974
쌓	-14.0975
홧	-14.0976
빕	-14.0977
틋	-14.0978
엮	-14.0979
컸	-14.098
쨌	-14.0981
팠	-14.0982
쫄	-14.0983
틸	-14.0984
띄	-14.0985
겪	-14.0986
렀	-14.0987
껐	-14.0988
왤	-14.0989
콧	-14.099
뻤	-14.0991
쏟	-14.0992
깎	-14.0993
섞	-14.0994
듭	-14.0995
겉	-14.0996
쁨	-14.0997
늦	-14.0998
됩	-14.0999
찝	-14.1
뇌	-14.1001
랐	-14.1002
떻	-14.1003
깊	-14.1004
렸	-14.1005
룹	-14.1005
